node {
  name: "x"
  op: "Placeholder"
  attr {
    key: "dtype"
    value {
      type: DT_FLOAT
    }
  }
  attr {
    key: "shape"
    value {
      shape {
        dim {
          size: -1
        }
        dim {
          size: 28
        }
        dim {
          size: 28
        }
        dim {
          size: 1
        }
      }
    }
  }
}
node {
  name: "mnist_model/conv_1/Conv2D/ReadVariableOp/resource"
  op: "Const"
  attr {
    key: "dtype"
    value {
      type: DT_FLOAT
    }
  }
  attr {
    key: "value"
    value {
      tensor {
        dtype: DT_FLOAT
        tensor_shape {
          dim {
            size: 3
          }
          dim {
            size: 3
          }
          dim {
            size: 1
          }
          dim {
            size: 8
          }
        }
        tensor_content: "o{\213>\202M\205>\253\006b>\205\036\264>\267\252\367>\215\007\301=qx\r\277G\201\252;qY\001?~\332\033\276\036\340\304=\336\242\013>\207\315\262>\356\031\200>7\362d\277\305\013\003\275%\270\263\275#\305T\277|\252\262>\331C\017>tn\034?\325\233K>\265J\352\276p\307\332=\327\246\223>\206\343\252>\324|\201=\353P\260>X\217\213=$\354\271;\315\236\354\276\242~\273>\336\274\314>\"\237\225>\242\245\232;d\262\271>T/j\275+\260\317>\\\n\255>\276ol>\371\261\274>W\205\310\276\310\310]>m\356\032\276\034\276\317\275N\232\026>\334Z\277>{\025\227=\304_9\277T\023|>\230&N>ua\305>\377\225\201\276\227\244\251>\256((\276@\275\007\276\373\326\303\276}5<>\312\307\314>\354YK\276q\273\034\277g\324\200>\207\225\377>\372\352\003>\231X\004>\354}\361=\234r.\276;\232\354\276\375~\270\276\024\312A>Q\364\210>[%\321="
      }
    }
  }
}
node {
  name: "mnist_model/conv_1/Conv2D/ReadVariableOp"
  op: "Identity"
  input: "mnist_model/conv_1/Conv2D/ReadVariableOp/resource"
  attr {
    key: "T"
    value {
      type: DT_FLOAT
    }
  }
}
node {
  name: "mnist_model/conv_1/Conv2D"
  op: "Conv2D"
  input: "x"
  input: "mnist_model/conv_1/Conv2D/ReadVariableOp"
  attr {
    key: "T"
    value {
      type: DT_FLOAT
    }
  }
  attr {
    key: "data_format"
    value {
      s: "NHWC"
    }
  }
  attr {
    key: "dilations"
    value {
      list {
        i: 1
        i: 1
        i: 1
        i: 1
      }
    }
  }
  attr {
    key: "explicit_paddings"
    value {
      list {
      }
    }
  }
  attr {
    key: "padding"
    value {
      s: "VALID"
    }
  }
  attr {
    key: "strides"
    value {
      list {
        i: 1
        i: 1
        i: 1
        i: 1
      }
    }
  }
  attr {
    key: "use_cudnn_on_gpu"
    value {
      b: true
    }
  }
}
node {
  name: "mnist_model/conv_1/BiasAdd/ReadVariableOp/resource"
  op: "Const"
  attr {
    key: "dtype"
    value {
      type: DT_FLOAT
    }
  }
  attr {
    key: "value"
    value {
      tensor {
        dtype: DT_FLOAT
        tensor_shape {
          dim {
            size: 8
          }
        }
        tensor_content: "\204.\276\275\377\002`\275\2030Y\276\021\373\365\274X\264a;\325N\017\275&_\346\273`W\366\275"
      }
    }
  }
}
node {
  name: "mnist_model/conv_1/BiasAdd/ReadVariableOp"
  op: "Identity"
  input: "mnist_model/conv_1/BiasAdd/ReadVariableOp/resource"
  attr {
    key: "T"
    value {
      type: DT_FLOAT
    }
  }
}
node {
  name: "mnist_model/conv_1/BiasAdd"
  op: "BiasAdd"
  input: "mnist_model/conv_1/Conv2D"
  input: "mnist_model/conv_1/BiasAdd/ReadVariableOp"
  attr {
    key: "T"
    value {
      type: DT_FLOAT
    }
  }
  attr {
    key: "data_format"
    value {
      s: "NHWC"
    }
  }
}
node {
  name: "mnist_model/conv_1/Relu"
  op: "Relu"
  input: "mnist_model/conv_1/BiasAdd"
  attr {
    key: "T"
    value {
      type: DT_FLOAT
    }
  }
}
node {
  name: "mnist_model/maxpooling_1/MaxPool"
  op: "MaxPool"
  input: "mnist_model/conv_1/Relu"
  attr {
    key: "T"
    value {
      type: DT_FLOAT
    }
  }
  attr {
    key: "data_format"
    value {
      s: "NHWC"
    }
  }
  attr {
    key: "explicit_paddings"
    value {
      list {
      }
    }
  }
  attr {
    key: "ksize"
    value {
      list {
        i: 1
        i: 2
        i: 2
        i: 1
      }
    }
  }
  attr {
    key: "padding"
    value {
      s: "VALID"
    }
  }
  attr {
    key: "strides"
    value {
      list {
        i: 1
        i: 2
        i: 2
        i: 1
      }
    }
  }
}
node {
  name: "mnist_model/conv_2/Conv2D/ReadVariableOp/resource"
  op: "Const"
  attr {
    key: "dtype"
    value {
      type: DT_FLOAT
    }
  }
  attr {
    key: "value"
    value {
      tensor {
        dtype: DT_FLOAT
        tensor_shape {
          dim {
            size: 3
          }
          dim {
            size: 3
          }
          dim {
            size: 8
          }
          dim {
            size: 16
          }
        }
        tensor_content: "\271\273G\276r\237\257\275\255\352\203>w\256\013\275\033\336\263\276\ro\375\275\036\357_\276o@\221\275\354\177#>\214\276\233\275\322J\006\275\246l\260\275\020\245\001\274\2128\375=$\2237>\273\013\\\276\216\024\267=\241\3220\276#\024\213\274\264n\204\276d \300\275\200\014y=|N\336<Dgc>\325\020\222=/\036\223\276\367\234\022\2752\346\330\272\250\344\'\276\357.\273>\203\300\261\275\376_\003>\003\232\300<\276H\177\275\373\004W>C\030\032>lu\343<\266\346r\276:\020U\276\rsn>\230%\243=Y(\357=C\227[>\014\350\341<9\276\231\275\304_\354=\303d\230=\253w\226\275v\307C\275\022 \375<A\367\252>\010\350\222=\347\306v\275\2031%\275\016\224\271\276V\243_>G\034J=\177\333#\275D\333:\276e7\250\275hkh\276\220\006\317;\r\334\255\273P(\377<\341\227L=\252})>\037\303\033>\346\267\274\276O\370\037\274\325UB<`\311\217\276}~\270=\330\312\n\276\277-\340\276\213\257\362\275\361\201\037\276\274.%=\023\037z\276\000!\272\2678\323\237\274\230\232\306\275\371f\364\275\370_\217>\275:5>\365\243\265\275\343\337\005\275T2[\276D93<s\307L=\351\250\333\274\204\254c>\267\263\242\275\005U\330\274%\2014>\371]\335<\361L\211=\366U\023\275\201\337\212\276\300\"$>\023\023\371\275\233\333\361\274$\234\007=\220)\234\275\266:Q=\033\036\006\276\341\364\354\274O\022Z>B\315\014>\371\2738\276E\007\r\276k\0342\276>@\340=\365\314\010\276\206\374\355\2755\367\205>*\212\t\275{\020;\275\376m\363<\3414\022\273Z\0141>\334;\302<\314\207\026=\256\334\022>\356\333\033=e\325a\276=\224\007\275\357s7>\023\256\320;\346#*\276\227vK=&\3530\274/\200?\276\300sd9e\273v\275N\210\271=\261\306\025\276;\335\254=\233\374\230\274L\233\326=\004\035\021\276*2\'>h\024\315\275\317\021z>\323\2675\275\342\346\020\277\202TC\276^\322\035>@\254==F}1\276p\316\013>\307{\326\275\311\255\">\031)\037>\237D3=V\213.>h,6\276p\364\365\274@l\210>\330\236\304<}\321\033=65\032=Ia\033\276\330ct<\214\014@<\326\274\226\275\214\203\366\274\013\221\247=\274\346\216=\207\356\216=\325\215\347\273\202\364\005>\214T\254<p\373\205>\243D$\276\317_Z<\027/\356\274 j&\276\367e\234=\037\351\214>=5\235=\220\017A\276Y\265\276\275\373v\251=v\220\345\274\271\342{<\021d\253=(\270\030=5\010\331\275Z\210(>\303\002\000>TO\327=i?\t>\240\"\303\276\320\000\263>\246\027U>\327#\036>\026\340\017>;\357\016\276\247\311H\276\334A\\\275\224-\240\275\002W\013=\225\375,\276\374\243\200\276p.(\276\332v,\276$V5>\361\030q>\245\2471<)0\020=y\327T>?u\375<y<\231\276/\347\325\275H\335h>c\322;\276\006Xb=Uc\003>\3576\230=\233\256\222\274\310\341\226=\275~<\276\024\366\233<\342\310^\276\245@Z\275a\334\233\276o\265\251\275\355\351\264=\375z\341\275T\346\312=\257\270H>\357\362\334\276c\222\325=\210\251\225>Phd\276Un\270>g\203\252\274\0175\010>\360\017\240=\031jW\275\006\323+\275\221};>V\020\214<HI\217:_\361\240\275U\225\211\275plY>&r\356\275\210\226\265=PF\213\275\3401\305=\354J\256\271\253\024\025>\027r\214\275\350\2429>\035h,\276\3235\302=V\274\214\275#@\007>np\310=\270\314g>\305\nA<_*f=|L\317=F(\277\274\271\t\275;2\303\321<Aa#\276h\352\334\275?\313I<\006h\255>_S\330\275ZX\n=\275\316\254\276\351\325\262=/YV\276\033l\231\275\232\256\254>j\225m>\233k\331\276\304\242\t>X\323\345\275\210\016\240\275\263u\035\276!\372\305;oc3\275\216\014\235\274\371\355\361\275\177\nT>e\313\'\276\333\201\315\273\260P\020>\033\234\200\275\272\334\275\276\356\273\027=:\270b=9o\013=\224\221%>\202\3564\276P\334)\276\024v\221=\371+@\276\362\237\276=\324\362\244\274\215,g>J\237\231\276\016/\357<\242Z\270\274|b\021=\360\260\203\276\211,\032>BQh\276\207\350\\>9\334\316=\320\r\310\274\354V\020\275\331\264\r>\333~\261\274\022D\275=\253\222\211\275\2525\236\275l\020u>\261\201\\>\007\234&> \264\035>\r\027\232\276!KV\275\364\274K\276/\231^>\265\346\264=%oJ\275\037\262\223\276:b8=\316\325}\275K\374\254>\206#\353\275\227\246\251=0\316q\276%\000`\275\267\004(\275\323\037\246<\247\365\232\2765%\237\275\355\035,=\r\322\216>h\230\001;={J\276\255\276=\274@\230m=\212\036\000\275JvE>\341\356\021>U\261q>\242;\030\276\244R]\276\240\025\211=\277\004\244\275q\324\250\274\003\273-\274\234\227\373=9\225\215>\\\'\203\275\352\326\004\277C`c>A%P\275Z|b>>\210\027>q\205\361=u\2149>\332\004D\276(\312\364\275\341\225\353\272\326a\024=\177q\216\276wV\234\2757\246\351\275E3\364=\360\260\223\275\302\030\212\2752\355\203;Do\\;\225\213h\276v\005\235=\260\240\016\276\344\377Q\275)\305\272\276\013J\322=\300,L>C\302\232>k\242\354<\020\000\341\275-\344o<\004h\335\272\206:\226\276;g\343\275\300.I>J\331\236\275)\2754>\201\341\224\276\027\204\315\275\373\3432>\206\205\246\276\335H\006=<\217\227=\210\242l>\02685\276T\2170;\334\343W>\234\357\215\275y\271\211\276u\201\303\275\331N\252\274s\340\217\276Kd\221>r6\346\275\356\353<>\t\266\254\276O{x\276\220\\P\2743\265\316\275m\n\031=\250\243E\275\337\215\251\276#\027M>\352\343\000\276\362\365:>Qs\264=n\265\260\274\304W\312=\r}*<\033\306\253\276\244\034o\276\\\351\004\275\001s\201\276 \353\350\275<\022\342\275\0035M\276,r\014\273\332JB\276\315\253n>EH\230=\364:\233=\227\\\342=[\230t>b\244\331\276\242\034\310\275\272#$\276\'\316r\275#\364\324=\010J\226\276\001\337\235>\330\376}\276\314\331\355<\254\016\340=y}v\276\365\237 >\232\201w>e\036\202\276\001R}\276T\254\252>a\233\235\276xe\203\276\334m\206\276Z]\245\275Z\376;\2760\374\304\276\307\244\377\275\31128=\234\335\202=\311\212\253=\317\037\337\276\025\235\236>\302\311\023\275r\362\017>b\236\325=\241\314\211=<O\254\275\365\017\324<\300\321\271\276\223\324j\274\307\237\031\276\235\336\255=\205\213w\276v_\273\275s\201b\276\216\356N\276\254<\222\276O\264!>>\"\337\276\177\337m>\235\260\213\276.\372\016\276\257f\014>9\272\264\276\\\202\272\276\252\2503\275\323\307\032\276\347\227\320\276m\231)\276OUs=\313<\217:e\200\004>\262R\315\276\337\220\324=K\360$>\333R\202\275+\361\021>F\311D>#;r=\250\323\006>\300\311\215\276\326\242r;\261\341$\274cY\270\276\262\320H\275\3013\031=\326\273\023\276\364\354\231=py\244>\035q\231\276S\367\314>/\261\222=_\026/\276\3527\233>\236\327\332\275\025\002\254\274]\001f>\215\250|\276\320\222\207\276\347\351\276\276R\273\017\275\000\315\337>\000zc>\255\360\266=\261\226\324<%\2548\275\336\202\274\276\245*h=\301\371T>[\3647\276G\333\030\276#\222\372>##\331\276\230\214\215\275A\312\274\275\005\244\231;\374j\265\276\005\246\t\275\014\236,\276Uh\365:\327m\030>*\272\223\276?,y=\217b\214\275\037Q\252\274\350>\357\274\367\356\275=\360\256\256;w0s=\370U\257=\025)\205\276\270@\007\275\344R\252\275\rs;\276P\221m\276\346\326\374\275\301T\003\276\023\314\024\276\225\341\216<\227\312\222>\001\002h>\365\273\022>\317\226\271=\374\022%>%\314*>\330\214$\275\035B]\276\026M#\2761o\007\276\217\326\322<\314nL\276\322\310\014\276\266\004\302;\n\013\356\274\363\242\371=\253?\211>\355\321:\273\334O}>\273\312p\276\271\257\262=o\323\317>\375o\305=\235%\374<@\243\322\275\356\252\315\276\351x\231\275\021\262\240<}\304H;E\321\357\274\366\020\235\276\343\245\316;\274\326>>B\250F>\037`\276=\277J~>2\2212\276\253\323y\276\334Q\247\274P4\333\274q\027&?<\030\371\274\036$\354\276\263\334\034\276\317\215o\276\027\r\324\276e6^>\253\351\322\276O\001\340\275\220\227q\276\330\340\263\275>\237F\276\263\246G\276\253\261\271\276\371\242!>N\363\203=\366\020\315\275Xi\327\276!\260\022=\204/\220\276\306\3328=\367\256\231=\037\274@\276\254#\233<\305\0011=\332\345\331=\340\027\010\275v\374\">\356\027\235=|i5\275]\371\026>o\250\213\275\335!k\274et\347\276\214\245\317=\021h\021\276\025\262\216>\336_\217>\305\000\301\275\334}\003<\242\005\"\276\364\022b\276i\350\240>\315\211\360\273\240\335/<\3057\3429\352\214\224=^0\324=\031V\256\276T\014{\276\266\357~>-\264p=\237h\230\275\314\037\224>\331\222\257\2764\332\265\275\365\363S=\300d\272=\327\273\006=\037\215\010\276\257l\362:\317\345\263\276\243\374\232\276\243z\374=!\206\032\274\374d\371\276\231\220\225\275\350%\217\276\240;(>\000\255\252=44 >\256\022T\275\202 \242\276c\314\354\275%\222\025>\357)C>@7\237=\357\304\337<&\357B\275\3033S>\036HG=j\003\000\277\373\003\200=\372o\235\276:\361\022>\340\327t>\333\274\201\276fJ\224>\256\340\017=Q\246b\275s\2317=\330u&>\027\0053=3xy\274\240\245\255>N\006y\276\007\236\335<\257\347f\276\305\262\246=6\006J\276\230\276\241=\006\221\273=\204\256\207\276\310\177\245>\251\277$\274F\325G\276\r\304\216=!c\246\276\256y\324<\345\261\323=\375\330]>?\025z>\336\266\220\2747\252\244\276\345\227\322\275\0379\335\275\002\266O\274\004\177\205>:M@>\2764s\275^D\231\276\315z}\276 8\'>\242/\336=\231J\340\275.\342\037\276\367\207\021>D\346\340\2742o\300>T\271B\2762\330\342\275f\224\352\276\323\210\325\275a\223\"\275\221\034\365=]\211\242\275:\323\016\2762r\233\276`\207N\275\211\267\377\276\315\2577>\262 \253\275\204\242\302>XW\350=\306\243\321=\033\230\264\276\017(\346\275\266\231^\276\033\007T>\"o\214>\263x+\275\313\225\305\274\347sx\275\332=m\276\027 \203>\272U\337\274\336\202\320\275-\345)\276\230\360W>\360\321\001\275R\025y\276i\215\313\275(\000s>q\277\002?\263\326}>(\352\001\276\323\215\217=\033\366\324\275\320?i\276l\007\037>\200\2020>Qk\357\275I\323\025>_\221\027\276\371bO=k\312\363<sK\373\276\265F\305<p\216c=2_\t>\016\353p\276w~\300>n|\354=\017\021\177=\212T6>\323\022\326<\220=\265\275\267\353\204\276%\252\321=y\345\034=\n\377I\276\316\331\001\275\321\021N\276aNI\275\344\334g\2767\367\324<\360\2051<\034j\026\276\027\204\013>\366\210e\276\306\2055>\353\316\327<\213\"L\276\256\207\360\275@\312\315\275~O\264=vy\026>\246\263\311\275\302\027\320\276\213\006\001\276/\371r\276\306\032:>\265Z\000>.!d\276\321f\206>\230\235Z\274\351#\217=\266\372\010>\003\331\240=\321\2364\276j\267\200\275s\236M\276kw\350=\032\361\333<\\t0\276n\3024\2765\032\227\275\320\034\002=Z\265\251>\030G\302\275\273\372\025>\265\303\005\276.Y3=\023\0319\274\264\003Y\274\223\257\350\275\325\227t\276\232p\200\276M\236\261=>v\005\276\255n\336\274n\267\365<\217t\226\275+\230>\273\276\354C>\322\237\007>[\032\346\275^e\234;\323\010m>\360\331<\275\210\022\016\276\264\022\206\274xz\025>\234A\245\275%e\215\275\343\255\021\275\027M\212>p\345\265>\313F\264\276\302\014z<\270Z\031\276A\372\312=sD\204\276\262P\231=\243L{\276\265(\022\275n\243\314\275{$\351\275tS\302\276\272\010\037?\360|\271=]\330L\276Xnw\276ey\367;\350&\226\275\232\367?>\302\355\324=y(k\275\342\341\271<Y\372\016\276d\010\r>D\362\256\275c2\025\274\206\356)>,\315\325\274\267x\344\275\232)+<j\310\220\275\300\302\355\275\024\345\204\275\203\237\273>\367\253\020?!4\244>x\342/\276\233\337\233\276M\024\220\276\203\240\245\275\373=Y=2\3732>\252\030\225\275.\022\216\275\317-\002=X\377o>T#\222\276\251\303\220\276w\222$=\316\334\214>Q\221\322>\365+\250\276\037\333\334\2756e\210\276\264\034\222\276\273\307&\274\351\352\004=\320)\212\276\254\350\274\275\010L\307>h\235(\276N\313\t\277\360\204\242\275!H\212>\227\220\330\275\0340\002=\370\256\">\377\035T>\0018\203\276.\317\230\276\367\313\246\276x\317\213\275\325\263\204=\271\217k\275D7\266=G\304\350;W>\022>\204T\t>\017ax\276\026h]=\371Z\225\2764\017\022\276\330\\\000\275\340s\000>;9\231\276\255c\016\276h^n\2767`+>,\214\270<\376\242\026=\307\255\272=\302Dd=\340\320\035\276L\371\372=A\261\254\274:Z\262=SK\232\276\247\224\226>\025\203J<\031h^>\305\241\362;\261n\273<Q\343\n\2767\021<>n\005B\275lrB>v\312\207\276\274\215\255=,\253\274\276\016\352\220>\260X\007>U\251\204>U\034q\276\355\274\301\275\330\3749>\252\2121\275zI\216\276\315)\241\275&\204X\276\027\257Q\276\257L\t>\224\022\202\276\323-\220>%\355P>\226\240\276\275\266\205\343=\276+D\276T\203\267>\257\245\207=\302R4\277\312nn\276\205\314n=\273\364\265\276\340\326c>V\320\240=\206\001\006>BT4\276g\361\002>\322\277\211\276P\n\200\276\335\212\003?\342\263!>g\010\375\275\000\204m={\0356\276\243J5=\200\321o>\303k5\275\361T\201\276\320\006\201\276u\346\r\276z\326\017\276\004w\324=\234\023\324\275\216\000K>i\022\373=\013\004\311<\000_\037=\304\350\036\276\264;\010>\205\010\313\276\016[\241>f\373I>%\261@=\030\330\372=WK\024=oE\222\276\256\207\326\274\032^^\276\200\345b=\310F\330\275\301\007\205\273\004P\201\276\355-\017>3\301\324>\2562\361<`\365\337\275\365\360\274=5\375\241>\360\006,\276\030\203\245=\"\366\304\271\036\267\354\275\335b\313\275\246\273b>c\035\347<\302\330\273\275\316T\341>\205\300M\276\254\356\234\276=\020\340\274\255G\362;|\221\364\276pe`=~T\021>\260\034\213=-m\232:\366\276K>?\264\232\276i\215W\276\3554\236\276\251a2\276F\331!>\236b\035\275\336\354\363\274\374\372\262\276\323\241\225>YJ\177>\344\331\365\275\206\231\321;\372\372\247=\002\211\001>\230\370\313\275&\217\230\275\216\337\020\277?,\207\276`\225\001\276\3609C\276\362X\227=X S\275\033)\355\275\215\317\240\275\327}\227\274 N\364>\344\'\203\276\220!g>X\037\032\276\257$\'>#\324k>9\360:<\no\267\276w\306y\275\213\256\037\276\375`\021>$K\317=sUA\276\'\357x\275\313\031\004>\312\322F>q\346\213>\022\267\304\276\227K\246=\333\\P>:\3508=e\241F>\032\260\\\275\3469\316\276\3217\201\276\351}\260\276PG\324\275\003\310\017>\030h\265=\003\301\036\273\301\370\242\276\"\221\267\276w \224>\200\021\307\276\365\301\236\276`\032\251<f<\344=\343\313\002\276\325VO>;\202Q>\305\202\253=\335\232C\276Vr\n\276\270\331\277\276\333\333\030\276e\003\200>rs\340\275\370\217\307=\320\272\007>\302\003\260\276N \037>\324\333`>\310\373\016>\311=W>\222\352|>&\"\303\276\372\024\003\275\313\275\267\276\020\360u\276\252\016\021=\006\365\353\275\324j\324\275\033\305\245\275"
      }
    }
  }
}
node {
  name: "mnist_model/conv_2/Conv2D/ReadVariableOp"
  op: "Identity"
  input: "mnist_model/conv_2/Conv2D/ReadVariableOp/resource"
  attr {
    key: "T"
    value {
      type: DT_FLOAT
    }
  }
}
node {
  name: "mnist_model/conv_2/Conv2D"
  op: "Conv2D"
  input: "mnist_model/maxpooling_1/MaxPool"
  input: "mnist_model/conv_2/Conv2D/ReadVariableOp"
  attr {
    key: "T"
    value {
      type: DT_FLOAT
    }
  }
  attr {
    key: "data_format"
    value {
      s: "NHWC"
    }
  }
  attr {
    key: "dilations"
    value {
      list {
        i: 1
        i: 1
        i: 1
        i: 1
      }
    }
  }
  attr {
    key: "explicit_paddings"
    value {
      list {
      }
    }
  }
  attr {
    key: "padding"
    value {
      s: "VALID"
    }
  }
  attr {
    key: "strides"
    value {
      list {
        i: 1
        i: 1
        i: 1
        i: 1
      }
    }
  }
  attr {
    key: "use_cudnn_on_gpu"
    value {
      b: true
    }
  }
}
node {
  name: "mnist_model/conv_2/BiasAdd/ReadVariableOp/resource"
  op: "Const"
  attr {
    key: "dtype"
    value {
      type: DT_FLOAT
    }
  }
  attr {
    key: "value"
    value {
      tensor {
        dtype: DT_FLOAT
        tensor_shape {
          dim {
            size: 16
          }
        }
        tensor_content: "\007\251\014\275>\231\000\275\000\034z=\004/\345\275\2610\225\275C\264 \276\217i\365<\366\303\342\274\3568\237\274\320\341\201\276\025.\017\274<%d\275EtH\276\323Z\373\275\003\007m\275d\2548\276"
      }
    }
  }
}
node {
  name: "mnist_model/conv_2/BiasAdd/ReadVariableOp"
  op: "Identity"
  input: "mnist_model/conv_2/BiasAdd/ReadVariableOp/resource"
  attr {
    key: "T"
    value {
      type: DT_FLOAT
    }
  }
}
node {
  name: "mnist_model/conv_2/BiasAdd"
  op: "BiasAdd"
  input: "mnist_model/conv_2/Conv2D"
  input: "mnist_model/conv_2/BiasAdd/ReadVariableOp"
  attr {
    key: "T"
    value {
      type: DT_FLOAT
    }
  }
  attr {
    key: "data_format"
    value {
      s: "NHWC"
    }
  }
}
node {
  name: "mnist_model/conv_2/Relu"
  op: "Relu"
  input: "mnist_model/conv_2/BiasAdd"
  attr {
    key: "T"
    value {
      type: DT_FLOAT
    }
  }
}
node {
  name: "mnist_model/maxpooling_2/MaxPool"
  op: "MaxPool"
  input: "mnist_model/conv_2/Relu"
  attr {
    key: "T"
    value {
      type: DT_FLOAT
    }
  }
  attr {
    key: "data_format"
    value {
      s: "NHWC"
    }
  }
  attr {
    key: "explicit_paddings"
    value {
      list {
      }
    }
  }
  attr {
    key: "ksize"
    value {
      list {
        i: 1
        i: 2
        i: 2
        i: 1
      }
    }
  }
  attr {
    key: "padding"
    value {
      s: "VALID"
    }
  }
  attr {
    key: "strides"
    value {
      list {
        i: 1
        i: 2
        i: 2
        i: 1
      }
    }
  }
}
node {
  name: "mnist_model/conv_3/Conv2D/ReadVariableOp/resource"
  op: "Const"
  attr {
    key: "dtype"
    value {
      type: DT_FLOAT
    }
  }
  attr {
    key: "value"
    value {
      tensor {
        dtype: DT_FLOAT
        tensor_shape {
          dim {
            size: 3
          }
          dim {
            size: 3
          }
          dim {
            size: 16
          }
          dim {
            size: 32
          }
        }
        tensor_content: "\241C!=\334\204\020>\360\014l\276\207\005\306\275\013w\214=Mc\316\275\221\254e\275\274\320v=i\342\215\275M\206\214\275\025\232e>VF\302\275Q\375B\276`\210\354=\202\230#<\211t\245=\250\367d\276\320\222\215\275\016\0100\276\274\271\202=\2126\264\273\324Dn\276\223\"%\273\000`\031\275\333M >\31092\276!\264\005\275\230\344\207\274\232\274\236\275-e\237\275S\324P=\302\252\024>\225\002\005>\273-\273\276\275rx>.\240\275\275{2C\276K\2607=\377\271\372<\376\371\003>f\0306>R\\\271\275M\261\245\275\007)@\276\370\362\n<\362\201\357\275\364\273\204\274\320ik<\250\361\002\276\302\372\003>vF\006\276\201\034\273\275\360\301\023\276 U\346=]\376x\275\245\224\202=S\252b\274\254\340\032>\357Z\374\275\005\271U=V\2373;;\311\324\275r\250I\275_Y\033>\313\222\245\275@\202\303=\261f\205>\250\277z=\240\307\223>\032\224\260\275\200\211\304<j\240\203\273E\361\237\2766)*>,\237\360\275io\273\276\367\233r\276\2329q\275\240\220\272\275\373A\202\276Y\033\206>\242>\r\276\031\357i>:.\252=\200,q>Kr\251>\026Z\005>\341\010\022\276\377\300D\274;\204\221\276\270\230\226>y\342\013>v,{\2753a\360=\334\021\355=J]\322:\003\257\260\276\033(~> E\342\275\253<\034>T\321\013>\023\213\005\276\024\r\002>P\271z=R2\262<\017\364/\274\267l\370\274I\032/<X\302\203<6\352|:y\245\301=~\257\021\276++\352<\306\005\322;\000L\206=:j\022\276\216\256\r\276\310>x\275=\267=>K\277\234\276\207\333F=\320w\247\275\243H\360=\225\003\225\275H\206\331\2735\375R<,\223\340\2740\016\316<\300\313\237\276p\372%=\0232\273<?\205\241>\233\322\202>%Zk=\017^\323=PqX> \343\217\275\205\r\301\275\320\310\360<\337op>\347s\266;1\2657\276\t\240\304\275\360`\235=b\313\244<\377\211\240=\247\346\206<\3335\327<\321\353\250\276\300I&>\357#=;\014\"\254\275\314\251\334\274fM\253=\264\272\311=Y;\371\275\277\252>=\244\320\006>=\205\217\275\021\230\244=\301\345\244<\316Z\210\276\331q\235\274j\350\021>S\366\005>\222i\207=$\006\r\275\345\035\321\275BC\354=5|\342\275\035R\201\274{\304x\275S1Y\274`z\276\275\264!\321=\256\240\264=}\364\251=~B\333;7\345\007\275f&_<\307\254\252=$\026\353=\026\347\300=\362\002\202=\244]9=?\370\311=\252v6\273\023_$>a\006\350=\345S\316\275P\224\220\274!\267k=J\324\034=\014\332^>M\310\331\276\217\260~\275\373\344[>0\202_=\037\210\207=\303x\366\274@A\225\2748Q =\241\032\203=X=\367\275#\177Y\276\226\255\220=\260Y\222\275\266\257\322\274\346\034<\275\032\276\257<\324\245\253;\340\2447\275\255\363\036={5\000\276\236\r/\275p\362\207\275\301f\206\274g\337\272=h\320\252=I\365\327\275L\361\213\275g3\353=\331\306\n>\214\355\215=\2205\364=\3061\242=\261=\331\274\240\275B\275\260\262\273\274u\235Y=R\001\030>ND\244=\245\342\311\275\231\347\260\274\323\244\217\274\307\220\326=f[\362\274X\357\034\276\376=\340<2_\321=wS\310\275\t\372k\275\356B\307\275\267\260l=\t\325>>\366\272C\276\347\231\335\275\273\261\304=\217rS>/\271\003\276\360\370\000=\351]\177>\373\377Q\276\\\340\230=\221I\215=\th\256=\214z\340\276\247\241$=um}=\340\230J>\265\350\362=p\333\206=db\037\276\216t\217=\267\234\235\275\310G3=V\013\224=\312\216\247\276DBY9\370\305?<\325U\002\276\260d\005>\254\262\323<\022\215\026\276Mi:>k\257\000\276\245\261>=3\237V\275\370\336\333=\314\364)\275\220{\201\276\255i\273\276\364\241\361<\262m}\275v\237\024\276\240\002\307\275fK\003=,\"\303\275\316\365\373\275+\336g<\344\276r=#\253\242=[\351\370\2758+X\276\342J\361<\343\223\301=Ft\223\275\260\371\305\274\251\216?;D\330_\275H\355\250\275kf?\276\377\007\004=V\034F=p\311+>g\246\031\276\243\377g=\247\310\355=\330\"A>\301x$=^\235\013=s\263\225\276\335f\225=\275\026\322\275L\216e>\'0\346=#L\206\275\2645\001=@\241W\276\\\372\341\275>\031\335=\216\325\260=\375\320f\276\365W\033>\027\344\344=\374V\314\275W\2507>A\001\252<\346.\357\275\202b\005=\0309R=\357\322H\276\251\200\333\276gs\022\276\222\033\366\274\245\274&>\350\330\200>\217i\036\274y{\270\274\000\030s=\346(a>\35448\274#\025]=`\rY\276\272x\353\274\327\262\332<6\316P>P\2024>SM\201\276\370\372b\275\356n\263\275n]\343\275\025d\241\276\007\220>\276\353S\016>.\330\317=\2503\334\273O]\351<6\341^\276\236\r\303\275\372\237\275;\025=\374;]\240Z\276lI\317\275i\310D\276kEr=\217\301\313\275\217Kk>y\230\'\275\353\251\026=\373nf=4\020\206\275\372\030\022\274BZ\020=?\2656\275EY\247=\223\2174\276\367.\023>\374\256J\275\026!\245;\262\217\302=\203\335;=@\276\374\275\\\035\034>\313\333\215> \344\360=\354w!\276\302\346^\274\24044=\236\325\221\276\352\255\030=8\032\240\275\270\337\310\274\257\215\033\275\001Ka<\254\021\374\275\3156\'\276\2529%>\254\032\210\275\247U\235\275\201\305\301\275\n&\016\274\267\023L<\275A\344=g\030O\2742\327\357\273\343\3648<\224\316\317\275\312Ez;-M\353\275/\327\020\274\257\0261>\314\251\231\275\027\033`\274;*\003\276>\364I\2768hR\275D\204\250>\\\201\372\275P\341\034\273\242<N>vy\212<\374jR>mG\251\2749\230=\275\353Q\247\275\200\356[=\213\262|>\247\022\013\276\235\3723\276a;\003\276\t\'\231<\221\177\223\275<\2770>\021r\312=\306\346\333=m\001\213>\025Y\355\275\251t\332=\373\211y\276\317\325\357=\275\372\305=\020\203\224=\21359\275wh\227\276F}\243=\026\304\003\276\212\303\276\275\211(\254\276\213Z\266=x}\261\27449\206=\306\333\367;c \035=\261?7=ofU>Y5\003=p\362\006>^`\302\275\357\217\212\275\200}Y=0LZ\275h\336\371\273}\211%\276\036H\270\275>b*>\276\222g>\214\236\371\275\235\000q\2759\246\247=(\020\025\275\261\256\225\275\355.(\276\356\263\331=\377\017\016>\345P[=\370\376\311\275\312\267\365\275\016\323:>\0227{\276H\373\243=\342\250\243\276$\225\031=\373\373k\275\375\335\302\275]\325\004\276\350\263\375\273\303\371\362<\364\253}>2\207\272<8jD<\312\032\350\275\370\356>\276\350\324S\275\0278\220\2754\247W>z\275\361\275\21681\274\376\235\006\276\020y\356=\343\353\307=\341>\023\275\361\267\013>\022\344\320=\0236\251\275\326\267+>\317\330\023\275o\237P=4\362\236=\353\314U=\262a\212=\031}\267\2756\374\277=\336\315\343=\236hF\276\271QI\276\276\016N\276]o\324=\316mO=\230A\327\275\026:\300\276\361\326B=\331v/\275X\323\251\275\327\022%=5d\026\275h\343\220=\001O\332=Z\307\016>\245\365\353\275\rK\244\275\236\004(\276\2278\005>@,\025=n\260\267=3%\344\274w2M>\236\220\203\275\272\275J=\241\235\027\276HY\321\273\340\237\235\275\243\324A\275xX\344<hN\213=\237\332:=\001\035\006>\330G\342<3l\220\275\027\021\341<\373\207\017=\217/\026>x\006\022\276U\337\222<\277=\336\274X\366_\275\2307\224\275\225\363\021\275\250/\247=m`\035=n\354\205\276Ci\221<\200|\231>\036\201\002\275T7\001>\005\225\201\274\351|r=G\240d\275Y5{\275\0262\017\276\032\367f\276\302\330\007>\346;\313=\213l\301\275\267<x<\235\302}\276\307~:\275R\256R=\022\025\220=\376\032\346\274\273#\337=\r\036\301=)\303x=\244\367\212\276\247\213\t=\n*\311=\031\245\321=\270\023\202=\007\364\244\276<O\237>\220\207`<\032\004,\276\032\317\234\276\320\233+=;\353>>q\nc>\215m\030>\247\007\314\2749\351\211\275\331\373>\275WjV\276\351C\201\276\035\006\005>#\217\231\275\234q\242>\240\270\232=\0379\323\275\032!\017>4\255\277=\271\331\204\275\336\253\212\276\260\372\221\274r\324\235=\017\272\333\275\312&\262\274)\232\321=\306\211\\>)5Y\275()v=XJ\200\276\273\3317\276\375F\260=\207n\270\275\352\327\000\276\243\242\003>\312\276\323=S\265\240=Y5%>\364\372\243\275V\317\023\275\233\006\003>z\240\272=h\362\244=X\231\213<,\270\231\275\014\2304\275\267T7=\212\004\337;\032\256\204=X\326A>\2533%\276\220-\030=\343\347\222=R\311\010>\241\250^>\357\233\304\275\345y8\274\007x/>:\266w>\017\331G=\366\270\347\275}9\027\276\275\226\376\274S\344\033\276\330\237\257=9.u\2751\t\274=\027\225\227=Wg\253\275Bs\000>\343L,\276+\002\276=\010\030(==\037*=\377B\022=\304{*>\007\'.>\307\"\256\274\014A\314\275N\0240=:\000C>>\352\001>\212\212\323\275k\343\'<$\177X>Oz%>a\256\376\274Ki\365\275\034\362\264\2754\216\342=y!\357=\233\\\352\275:[_=\237\\4\276\252\313V\276\352\354\264=o\216\324\273ap*>\254\347-\276\227o\032>N\224\302\272\251\351\343\275\0222\030\275\304:\035\276Ad,<\\ol=\210W\007\276\220\217\022\275\306\021$\276Z\352D\275mV\224\275\217;\312\273t5\240=\310\367Y;\267\374\007\276\356\010:\276\006\313\332\275\272cN\275Q\227\001\276\234\035\226=\'\367\016>\267(\315\275\251\222\203\276\342\265\013>2^\n\2756y\220\276{\013\247\272\230\207A>\367\370\206\275I\363,=\247J\352=\006^Y=\304\355\235=\"{*\276\006\025\225\276\271\260\366=\235\272\354=\261\220\267;J\204\021>\310\027m\275\201x\304=L\026V\276\322&\002>\323\330\323=\036]\036=LQ\246=\205\317\323>\353\232\203>\266?\210<\233\276\263\275\3604\211\276\tb8\275E\037B>]\240\375\275\277\013\211\276?xH\274\375\311\304\275\323\tJ>DQ\203\276\213\332\211\276\310\007\306\275\016^\304\275\365\003\325\274\003\206\313\274\215\361\272<\030F\205=d:\233=\205\221&\276\315 y=6\305\244\275\335w\003>uSk\275\200\023\373<\315eg>s\202\273;Sh\021\274\226L]\276\020L\360=78S\276\312\321\270\275\206\275\221<\264\232\261=w\"S>\370\017\236=g\276\334\275\353\357\200\276\017\331\322\275\021 \323\275\277\307}\275\327 \020\276\365\243o\276G\r\216<\251\371\224\273_\270\306;Xr\343\275\016\330_\275q\\\246=v2\'=\344\\,=\003\343\235\275\267\245\215\275H\377=84\221W\276\343\034\326\276\374\013\367\275b\036\017>ex8=\301|\014\275\261\234\336\274\037\004\305\275t1\246\274\270q\001=\356\352\253<\357h\361<\364\010\020=\242\017\365=O\230\251\275\245\312\213\275#\363*\276\206d\201\276\246\000i>l*<=\362\265J=Ed\211\276\263\200\252\275\242f\325=%\364\020\275cg\250<\243m\371\275Y(x=MY$>\031Z\252=\030\001r=\214\265\254=G\240\004>\014J$<\257L\275\275\322\377W=\016\363.\274-]\026\276X\021\235\275V,^\275GC6>T\355\377;\001\236\330\275\351\226\307=\221\323\016\276\022^\323=\352>\303<W\244\247\276UX\354\275=\257\023\276m^(=<\312t\275\221 \313=z\2563\275\364\n\334\274\014q}=`\213\261<\234\365$;\220\355e\276\311\200\307<\262\344\031>\356-6\276\206\375\305=\332\031\221<\277`\225=*\264\226\275!x\330=\200\200\267<O\204\234<\312\\\350<\243=b>\355\221C\272|\217\022\276\207V\263\276\216\320u>\202\254\350=\325d\345=\346\244\032\276\210Du\276\335\324\300\275\353\255y=\271\213\004<\323\300\340<C\311\026\276\330Ao\276\300\372%>\362\341\343=1\220\242=\177\327\214\276\276\223\227\275\351\210\345\275\247\210\376=3\371\2159Kx\254\2758\300\314=\216\260\035>\217\213\317\275\245R\032=\252OL\276\204\2159\276\n\366\036>kY^\275\304Z\017>#\323\302;\2158\264\274B\234/\273\276J\312\2737\3522\276\255\206Z\276\367\251);$\266\n>8!\331\273+\342\201\276US(\276l0M>\243\271\212\275\343\225\343\275(%*>Ym\267\275\202\201\257=\215P\203\275\360$\031=\215z\364\275\r/7\276\024\204\370\274\310\273\034\27649\341\274\260z\242=W\224\357<5\026\375<\010c\366\275\256\033\232<\326\td>\032\337\342\273u\031\262<\301vE\276\205\360\027>\340\273 >k\003\r\276os\247\275rh\203=\306U\214\275\335$\n>\374l3=A\220\t>PF7\276\237x\267\273\344\353G\274\032r\256\275\275\354\231=>t\232\275\303\262(\276\252\227e\275\021w\203=y\025\211\2764\0234=h4\253\275\310\350\271\275\360L\025>\202HZ=vx\336=v\210\336=\346\342\235\275\353\007B;wC\256<4E\220=\035}\232=\014\200d=\222\035\222\276\202@-\275\251\024\213=\225\234\"\275\342n\224;\026,\361\275\'\271\213\275\355SM>\321U\000\276\232\330g=(\372\205\275\022Q\t\277`\207\006\276^\235N=^\030\r\276C#\236=\212\027i=&^x\275\270\360?>gV>\276`\266L\276\377\233\205=\034\240\340\273\274-\357=\365\202B\276\210\337\202\275\204\330\005=\250r \275\212]\274<\\\223\370=\275\017\234\275\377\217\000\275\354;\002>D\001\222\275\202\246\225=\205\227\t<\356km\274LI\330\275}\301C\276\nX\264=(\345\021=\373\016\037=g\353\266<\3574\311=p[\215\274c+g\274\'\302g=JI\035<\247b\224\276;\205\204\274K\344\274\274\352:]>(\253\037\2757\2423\276,\325\326=\014\240\217=\362\303\210=.\320\236\275H\207\207\276\241\307\001\276v\267\201=a\206\224\275\360\250\'>\312\3538\276\244\254\322=\200\261\353=\266H\251=\211\370\255<x\211V\2769\343o\276\213\251\">\251\372\\\276p\020\353\275n\317\243>t\313:\276\306%\245=\032o=;\217\355\331\275\215g\304=\021\306\017>\375A\304=\372\3355>\336\257\023\275\350\213\251\276\367J\253<Q=\003>\262;\027<j\n\366\275K\357\330>)\234\246>f\213^>\"1\000=\251e3=?\267\252\274\3305\306\275\t\377\315=\033\253\214=\253>O=q\357\337=\334\352A\274}\242\001\276\244\325\257=H\243\265\275ab\007>g\024W\276(\3353\274\315\362\036\275\035\357\226>\325\201\320\274\341\276\035\2764u\004\275.\204\303=\271\321\240\276\n\2173\276\210\025X>\370n\377\274\025\346\202>\264\245\002\276\37503\275\314\312\336\276\2610\031>v\267.\276\020\366\217\274\254x/>\316\035C\276\014X\t\275k\r^\276\203&\024\27532\203>\321p{9\321\305\265\275\241\251\032\275,[\245>n\256\014\276\272n\213\275}\177r=\253\026\304=\340\361\002>u\377\276\2762\257\303=\251\213\007\276\255\210\267>\\\037\341\275\2056>\276a0\327\276&\013\211\276\361m{>\262\347->\275\245\275>t\226.\275\213\325(\276Q\007L>,/i\276\177\000A\276M\025\245=f\031\026\276\032\320\177>\201\314\211\275\014\364%\275_\243\022\276\274\305\263\275\225\321\036\276\301S\222\275\032\253\333\275\t\277\227=\366\230\032\2754\245\366=\365\242\354<\\\241E=S\275J\275\351\004_\275\345\222\214\276\024R,\276\302\244(>\300\205|\275\023X\253\275.|\242<\327\311\210<\t\002\331\275\227G\224\274J\021\364\275\215L\264=S\205\201=9=\344=\305\355\226\275[;\030\276\360#\312\274\033l\244\276\034A\365=PN\365=\005\234$>\315\3574>\334\203\252\275F\310\233\275j\343\277=\377\r\177<\344T(>\013Su\275b\251\364\275\350\005\226>\222\022V>\234A\225\273p_k=\230\030\211=hV`\276\246\334r\275\204f\275\275\257~\247=\323\346K\276\177\021\250\275\\\343\367\275\355\202\030=\204\272\205\275\321\201\203\2747B\014=\327\363\024>\n>\224\276\244Rr=\254u?=\023\377\275\275\272\344\376\273\372\006\">T6^>\211-\207\273\022\2138\276\211\264\007=\261\261]=\r\355->\257\021\273=!B\225\275J\262\200\276\'\354\037>\257\340\364\275\305&\312=S\365\007>\314\030c=K\025q\276&\367*\276aj\204<\265\207\311=\317\277v\276v\356\373\274\341\275\370\275\'O%\275)x\005\276\357e\355\275KV;=okw\275V\311\262\275I\375\t\276\300b\243\275\206]\235<;!\321=\376\263#>}\367Y\274\345\016_=\301R\001\276\226\366\303=\270\355\234;a<\255\273\247\021\235\275\'k\200\275+a\376=nl\314\276\243\266\027\275\204\006\221>XNs>\260}(;L\035h\2764\212#\275\3410\261\275\245\242\357=\350\344\340=\341Z\022>\324\235m=G\364N\275(Z\251\276\263\240(>\332=\226=\333\305\225=_\005o>\034\025\003>=\247\275=\216\255\226\276)y\371=t\353-\276~\264\275=\037@\212=UL\213;>\307@>7b\003>\366(\273\275\031y\212\2766\230\026=\215\342\321=m\001\017\276\307\010G\276\362\215H=\332\306V\276\234t\241=\345\221\362\274\365r\024\276,\233\273<\216\207\003>_%\211\275P|8\274\010Z\005>{>\304=8\353r>\200g\203>h\325\035\275\373\227\312\275\304\022\222>\273\030\237=\033\013\376=\326;c=\231\237\224=y\022\025\276\254\323\255=\225\364\221\275\000\273\271=tl\375=q\362\242\275\020)+>H;0>\303\324\213\275\365O\'\276\223?\217\275\307j\274\274%\227`>(\277\177\276\224\371\177\276\3750\225\275!C\225>U\344\215\275\320\212\036\276\222\225\367\276\355h\367\275\252+\203>\326\352N=\267\261Y<\214v,\275\003\242\205\276\232\'j=\244\365\357\27542%\276\1773J\2769\t\024\276\371\260\203<\330\000\322\273b\214\251\275\020M\001\276L\254\236<78\\>\347Z,\273\302!\361\274e`\007\276\230I\032=u\306\016>\215\035\230\275\222\211G=\'\304?\2753\324\236\275`\256\273\275Hh\254=\rw\216\275\242\004\217\275\343S\320=\2456c\276\r\007\226\274Ax\344=6L\025\275o\215R>\353\234\233=\212\326\010>\017\323\026\276\237\362\001>s:\036>\004\321u>C\234\253=\371\322>>\251\375\206\276x\004\365=\356\242\202\276\365\352\022>Q\322M\274\201\350\010\275\026Op\276r\2332\276\350o7=\340\224\000<(\347<\276\274\325\361\275\032\027\331=\345m\252\275JP\315=\306\362\205\276V\337|\276\342A\005\276\216\2229>\243g\376\275\300.B=\352\252\302<\227\352C:\200\367\272\273\344\375T>\300j\000>B\225\334=\370$\027>\031\252\335\274\000\213\223=\240\221\263\273U\214\002>\306\022\203\276\276G\207=\330|<\276\345X\300\275\256\227`;g\265\266\275+\246T>\207\217\034>\316\2631\276\274\266\223\276\305\372\221=\026\334F\275\374\210\373=\224\360E>.\253\212:\270\207\307\275\370P\326=\315\026h\275\013\003\267\275\240\030\363\276\331\327F>\004\214y>\376|\370\274\262\222\016>\2565\211\2764r\030>!\231\214=j\237\233=Gz@\2766\220\010\276\222\301b\276\352w\205=~\001\226\275 \235\306\274f\266\037\276m\014\276\275O\234\262=\257P\211\273\337\364\367\274\027\263\004\276^\303\217\276\373pP=\212c\325<\313\256\226\276\215tf>\306\002\006>\313!4>%\3079\276\301\2516\275\\\331\316\275\337$\035==\210@\274\201\272\277\2757\374\304=\tz\325\275y\272\276\275\373\255\253;r4\263<vK\032\276w\302N>\240\246\022\274\033s\373\273\367B\032\276\314\332\366=*\257a=@x\336\275\273z]\275\023\013)\276TW\212<c\326\325=\276\346\016\276\350Z8\276y\372\310=e2\316==\344\222\275\320\351\010\275\337}\332\275\241\340\315=\343\303\003\276Z{_\273\225\204\006\276\017.\273=x.A>\234\236\263<\323\253?>\242\2758\276\274\226\t\276\223MO\276r\271\342=\274\020\300=A\226\030>}\017\373<\253\302\211=wt\005>\347,]\276\367\347e>\300\222\231=\007a\034>V\013\355\275yo\351\275Kg\353<<\016\362\275S)f=}\344:>b\323\005\275\177(\022\276\210\361\254<\333X/\276\216\277e>J\333\204>\210.z\276\021\\\273\275\306\335\013=\277\224\002\276\001\332!\276\255\033\217\276Q\336I\276Y\226M>\025#\035\274h\032\276\275\021\330\337\275\251\244\016=\020\324X=u\371\'\276\307O\356\275\366\271\227\275\001\340\315\275\246b$\276\241\264G>%\033\251\275\003M\010=<o6=\0356\027\274\355\231\232\275\354\256\371=\333\312\206\275\242<F\275\357T0\276\324Lz>\203\265&\276\273D:>\016t\277\275\337\274\023\274 9\227<B\261\240=\205\355\265\275\3561\203\275\267\353V\276AR_=\277\372D>\247\316\003\276&*\005>\267\2569\276\207\246\016>\245\376f\276\204|\224>\021\362\267\275S\335\351=\265\210\311=\213\331A\276\216\034\373\274\257m\205\275\271\350\274<\024\027n<\036H\020\276{\031\252=\377\014\205\275\010\'\002=e1\357\275\211\325L>}\204=>^\016\r>\250^\374\275\021u\272=\023\247\270;.\235\177=\333d\252=+QV<\001\250\202\275\354\273\r\276\006\321b\275Lht\275\320\210\320<[\324\321\275o\017\311\275\\\024l<\301\312\r\276\220\253\276\275\313\360\253\274\247(S\276p\244\254=\\\342\253;{\023&>\375~[\276K\277\375=B\370\330<\237\254\t>\216\361\202\275@\316\241;\271mE\273g*\003\275\365P\022\275\003\214a\276\230R.=\2561\342\2740\002\277\274 \353\\\275TR!>}\006\232\273)\r\005\276v%K\276\002\002\261=\254o\276\275\256\267\235=Mm\222\276\246MY\276}\305 >\033,\261\276\201\240%>6s\034=ET\026>\235\\\276=\243\327\003\276Z+==\020$r==\"j>\364X\365\276\226\232\026=\327\313\037>w\260M=S%!>e\374\010>g\226\000>\266\357a<&\200P\275f&\254=`I\231\275T\366\361=\221_\004\276%yU\274\253\2776\276U\336|\275\323\2765\276\002\343$\274(\245\010\275\30521>?\233\225=\013\n\215=r9 <\316\0020\276A\204-\275\023J@=\327r\326\275S\254\006=\200\325\037\275\311&\230;\215\315\307=\021\217\031\275\336\214\315\275\343\236G\276?\220S\276\360#\260>\264\377\300=\031\230\246<\210\250\226\276j\000A\276i\372\270<\315\014\263=3#\221\275\363\322\273=\302\250(\276%\341S=\361f\022\275\267\334\312<f\200/>\354Ca\275\224`(>5\257g\275\310\240\326<\244\332\333\274\010\330\354\274\247\034+\273\204\267\017\275\322\262\025<\274\000$>=B\227\275\307\246\230\274\303\273\017\274C\222\027\274h\335\373\275\320B\231>\022S\353\276\331\013\374\2732\325\322\274K\017.=\245\210\243\274#\212\325;\036)C\276Q\242\256\2757\004\n\276\251\260\006\276yt\302=\377\375\222\276_;\025>\375\255\021>\330x\010\276\207\335N>t\213~=\212\316\326;\344\010\355=d\302)>\201F\361\275\035+\355=\265^\367\275y1\201=\r\361\270=A\275\223\276\367\320\004>\\\377n\276R6\277\276\336\356\027\272@\373O=IkT>\373\231\353\275\210\234&>\221\004$\276\tm:\276\351N\014>\225C\240=\000\013I\274L\257\314\275\256\231\324\275\276\321R\274\374q\224\275\030\030\351<\030\2565>j\000\216\275\010\004\024\276T8\230=\222\243\202\274\t\321\313=>\230\210<\221\317\023\275\323\353\247\274\342\206\366\275\264\350\177\276\024I\033=\325\010\017>[d|\275\200OG>4\036\001\276\200\021<\276\364\373\223=u\341\320=:\021\002\276\003\331-\276\335x*\276$\001j\275\271$n\274_C\'>\211\236r\276uV\263<FB|\275\336\333\217\273\202\225\366\275\263\344\357=\"\204\324=\252\227\365\275\221\236e>\247\037\351;W\3656=h\324\313\275\021\031\210\274\317x\177\2758\371\234=\355\004\204\275\370\242\353\275?\357M\275W\004\013>\034\373x\276\270\377\263\274<6 \273\301\034\036>\3413-\275\302\351\027<\330\202\275=\303m\224>\001\035\013>RN\206\275\262A >\314\247\276=p\314\024>\251(\347\275\034\021X>3@\346=>\212$>\265\271\031\274\375=\215=\2617\211\274-\251?\275\215\235/\2767\206E\274\001k\305=\265g\003>\300\327\227\274\207\3013=\203\021b>\342\002u>\315\223\230\275\335\n\030\2766\006Y\276\033\360P>\362\244\365=\255OZ>\0368\266=\302\220\221\275\273b*>\\\034\213\2769Y\245\273\205\350\355\275\251\225\243\274F\225.\276\262A\002>\224$\021\275\326\331\265=\017\356p\275\300\307\201\276\027\030\310=z\000@\276)G#>t\247\201\276\313\205m\275\305\006\310<\240\322\263=K\333_\276\251\211\267=\222M^\275\225\220\222>\\\225\013>\203\351\213\275x\034\001\276\264\t\333\275\310\341N=\255*W=7<\213\276_\0030>~R\215<6\022W>\360jf>\225\373\"\274rpU\275\322\340x>\330\374@=+\255Q<@\005\006=\337%\255<b\000\033>ud\265=\340$P=\270\216Q>\320\244\002>\037\000\204\276\324\220\204>\034\310\215\275\204FI\276\037D\002\273hN\233\275\264\n\356\275V\005o>\000\365\032\276\024\"\r=9\360|>V\256\322\274w\241*\275$\271E=b\013v=\277\004M=\256\022 \274\342\232\005=\243\217\301\275\274\353\021\276\362\360\341\275\365%\r\276\026\205\026>p?\213\275h\203\r\276\311\006\212>(\024(>\323\005\327\275\ni\355=_Q+>/,\223<9\335\340=\375\333\341\274!\006\024>_&O\276\276\305p\276\315\304\260=1\" <\326\326\277<\240>\345\275\262\177\306\275H\031\006=\310+\2509\'\303U\275nb\037>\242\272\217\276\344\0079=\034xW>\215\262\257=\007h\234=\264P\230\275\236]\271=VII\276\203\324\265\275;\375%\27681\347\275\325&\303\2744\021\302<\n\263L=\002f\333\274\253\350\345=\344pg\276\325\271\271\275\237,\215=\376\247\214=~\212<\275i\030z=\253\217\325=\355\004\332\275v\264-\275NeU\275\226\364\330=<\253M>\326.\342=M\205\022\274\257\037\361=\262\362\010=\277C\033>[\220!<\244c3:\003 \024\275\262\320\010\276(\025\213=RS\334<\025\335d<0\273\023\276Q0\025>\262\342\037>\020Z\361=\301\352\310\275\267N\235>\372\273\230\275x\020(<\206[\301<q\333\035>>J\226\276\034c\373\275G\323?>\033\222|>\223\366\205\275\\n\032\275;\255\036\276\0220\036\275\t\335\003>\007;/\275W\304\231=s\237\230=\256\307\006\276\361*\212=\363\276\263\274\355`\031\276Q\034\231<\261\357\224\275\313\035\005\276\0140\204\275\351\301\312;\235\221\240\275L\331n\27357f\276U>\272\275\346mM>L\233I>\240\221\337=>\270\003\2760{f>Q\243\016=ni\321\2756\221\230\275W\rI;r\347\207>BaZ=y\254\264\275\212x5=\2071\202>]\207\325\275\024\316\257=\333D\003\275\236\003\225>\006)p>\351\321\277=\370M\'>\272P\017\276e7\340=\237\273\202\275\326\341\001\276\330\021\224=\267\221\352\276\241\226\261\273\264\027\207\276RR\217>8\247\335\276\360\210\370<\244D\244\276\213hV\273\273\233\214\275\002G\336=\207\361)>\005\313\374\275\374\232\302\275H-\007\276\312\211x>\024\036%\276\236\223\232\274\252\342\365=\232\300\213\275t\200L=\324\005\254=\253\032\242=\021\023D\275Xq\232\275\206V\222\276\242\332\260\275\346\' =\330\242,>\242\247B=\227_\254\275D\260=>\347\335\024\276pQ\240>\317^\022>\357\\\303=&\272\363\275k\325\367=H\271\002>\\R\376=\032<\222\276\r\274\274=\226\343%>\302m\206=e>\201=lo\027\276\270\370$\276\2212\215\275n\272\014;\r\361\026=MC\027\276m\325[\273D4M\275\334ln\275\377w$=\234\333I\275\273\003\202\274\005(\313\275\020\332\025\276\233\273\315\276\014M\203\275\205\367\274\275\037(\030=4~%>e\2731=\327\225\t\274aI\237=\213L\252<\357\006\300\276N\243!>/\222a=\\aT;\320\013\027;p\206_<y\226C>qY\303<K:D=\257\276\370\275\233\341\336\2751\300\025\276(k\217\2743\010\r=\357\211.\276\237\213\033\275\210g\373=[\347\201=\033U~\275\233\007D\276\r6_\276xv\331< S\"\276\017[\225\275<\207\213\276\006:\222>P\300\202\275\314\205\"=s\377==~\316\301=\206\316\031\2758\007R\275\342U\320\275\020\177{>\327%\033=\232\357\340=;\235\223\275\302+\200\276^^\222=)G\200\276\2435\036\276\226w\231\275\275\340\013>\225\2762\276o{Q\276]\010\"\276\337Z\030\276\025\375\351<\361\315@\276\014\207\254\275\364\301B\275Yw\t\276\023e\n\276\226\356Z\276\211\306:\275\037jB\276\320L\004\276R\310\r\276\243\305\222\276\036\210z>\251\275\031=E<\221:\255\215\343=\346?\254=u\177\216\276\347\273\247=\370\230\010\276\033\276E<o\376\333\275\333\370\214<\027\r\301\272d\202\017\276\254c\316=\225u\255\275\325+\217\276+\303S\276g\315\r\274\225\016\021\276\036&\320=|\357\243<4rW\276z\372\202\276p\314\270\274\007!\300=p\267s>\251\215P\275\237\325z;\3231w\274\266\035\233\275L\004\211\275\016\005z\275\203\020\344\275\tw\022>\211\323L>!\026\336=\372J\302\275\035\227\226\275\223X/=\311Zl\274\001|z=6$e=\240\243b=\314\020B\276\373\300\r\276\357m\226>XO\207\274VV\234=\341\377:>\311\376\336=J\001\014>\2003\021=8\251\323\275\005\262\232\275Mu\036=\224\340\345\274\255w\'=\3503\020>\333\305\241=Vv{\276U\341t>\016\204\335=`\003v\275\3532\270=\351\247\312\276\243\356\006\276 \201\033\276z\365\341\274=\324s\275L\374w<\376~\031\276S\250T\276\273\261\013\276C\201\t>\375>\237=\024\2621\275K\323\357\275\316c\371\275\020\r\032\276\362p|>3z\302=\356b\333=:\276\021>\325\315\\>M\216\254\274\350\211\273\276J\366O>u\204\210>E\206_>L\312 >\351\275:\275\227\232}<\3417\264=\253 k>\037[\256\274m\212\016=\215}\272\275\016$\226\276\324E9\276\273\016\274\274\274\215\036>\200\325N\275\3514n=\r\322I=\325\306u\275\031,\272\275\223\355\366\275@-*\274w$2\276\026Q\300\2736\330\205<\340\216L=N\274\213\275\004\026\242=i}t>\272\200A\275\330]3=w\240\200\275\212\203\256=\213\354\003\275{?\327\274!\233\277=\315\004\027\276],j<\003\213\231\275\203\254\263\275\366\307\020\276C\340\215=\235Rg>\272\360\014\276\3072\027\276\035uP>a\241\222=\364\2059>\036\224\344\276\026\347,\276\027\343\356\276\377\311\367\274\244\341\214\274\273,\305=1\366\307=\304\270\357\275|U2\276\221t\356==T\227<g.\030\276^\310 \276{\254=>W\215[\275P\267\320\274\321\326R>\225\023\313\275\364V\342=Qi\376=7\307\246=Q\0324\276P\206\r\273\037\n\266\275\355\204#>\227z\257<?\025-\276\312\350\247\275@\300\245\275t\216\010\275\246,Y=\376\306\271\275\351\371\212>9Kp\275\003\2728\276\005@_<\006\237\200>\366\032\317=\263\362m>\316\247\r\276\016\031\202\276\031\247\021\276\3500\n>&\231\260\275\3703\253\276\233\247@\276p5T=k\254A>K\333q>\273\253\010\275\302\033\374\276\376\223\300\275\350$\005=\270\341`\275i\256C\272\3751\261\275\005\315 >\264S\240\275\320\361%\276S\350\220>\263x\300=\222\346\000\2762B1\275\026\204\036\276<|e=\202\311\341\275\326\034\022\276\3330\236\274\277\211\243\275P\222H\276]\334\314\276\220\343\243\274J\t\234=I+\213=\222\273)\276f,t\276\267\\\302\273\333\205\017=\375\036\017\275j\372T\276\\\326\203\276*R\271\274\331\347\234=X\347e>\3753\267\276\342\203p\275{X\374;|\217\330<\363\345\031\276&\366k\276\314\340\211\276Lr\217\276\352mc>I6\262=\2060k=\277\377K\275\270\354\202>f\306S>@\033\'>3\001\211\275&\330\246\274k\246z\274X\330\305\275x\236\226>\272<\215\275#\216U\2752\200\021\276-\225d\276\254\236\036\276;\3227\276Y\335\324\275 )\333\275W\353\'=R\272\333<08\321\275\360U\301\276&\3641\276OS\236=\247\273\005\276\236wB\274\242m\233\275!\027\304\275S\235\213\275\"\324\215=\tP\267=3E\343=\256\210\246<Q\330I\276\362\034\341=Z\026\267=K1\245\275\026\373\014\276\363\371\006>\371\361\231\274u+^>\335\331\345=i\201\354\275Zu\252;\231\207\020\276\372w\371=Z\305\014\276\375\300\272=\304p\274\273\023\212\263\275\241\014/\274\232i\371\274/\316\254\275I\024\256\276mz|\275}P\007\274\273\326z\276\037\243!\276\254\252Z\276\310\240\335=6U]\274qM\344=Dz0>~\355\022>\227&\374=.QZ\276\215c\321\274I\272\020\276\017\207\351=\311l\017\276\3350 =\262u\366\275C\237\367\276,8\321<\"^\232=/Q\337<\311\233\261\275\324e\003\276t(\210=\034\007\301=Cl9\275w(\025\276e\362l\276\013l\035\276&\326|=}\2767>\026\273;\276\'?\212\275\013\231\004>\023\246.\276\212i\226\275\231-\026\273\303>\203<\033(?\276\314\021\221=v\014\237>RS\324\275i\243\325\274\200\360\177\276\231F\351<o\266\000\276H4\314\275\325\252J\274e0\023>c\003\023=\002\325+>\322\302(=\250&Q\275\323]\253\275\322\000H\276R\027\303=\000n4\273U\357\010\275#\303\000>\356\206&>gN\250\275n\354\303\275\304\336\210\276\360*\270=.\243\364\275\226\357>\276!\203E\276\365\256\006\276\335\357S>=\375\276=_\310\256\275}\375\304=\271f\013\273\323\231\373\275\224\222\205\275\351\316\252\275\242B\002>\032n&\276\241z\n>\000cF=\312$@\276\364\221P>\2254V\274J\330?<:\225X\276X\303\020\276\037\254B<\027;y\2758\0228=\317\\\213\275f\302\252\274\227$+>\005@\346;\214\3519=2\230\002\276nW\224=U\204\006\276v_\270=\'\216\375\275\213<\030\275\234O\025>\327\030\320\275\nl\330=\020\353\347\275x\316)\276\247\332\267\275\333\343\250\274\213\350\300\275~\370\311\276\221\206\"\276:\024\242\275\312\304=<\022\310\250\275\")\322\275\377\262\227\276BG\016>\25185=\206\217\204<3\242\203\276\3606a=\210\365\206=\037B<\274T#\312\276\374\314\271=]\310\020>\375\264\332=A8c>og\265\276\333\305\341=\212\002\021>\2510\263:\325\364E=\223F\201\276\263\363\247<m\345\242\276z\216\006=\200\215\216\274\010\031S>@\344\331=\235\223\221\274\263\"\032>\372\006a=\030O7\276zN\246\276\226\037\264=p\305\255\276\2274*\275\255s\245=\303\216\227>\256U\030\275\223\237\267\275\316\222\336<t\303O\275\252\363\276\272}\243\243=x:\302\275\010/\245\274\250\243\217\2750\314\r\276\231\277\023\274\2007]=\314\242\203\276\037\031\341\275\023\267\r\276x*H\276 \263B>$\377\374\273%.\257\275\357%\036>\302\343\254={D\201>\007\220\265\275\267Q\245\274\17728\276\211;\032\275\346\261\331<^\014\031\275\354Q\275=)=<\276 \305\357\275{k\374\275\027\332\204=%\304x>8SH\276\t\203S\275\244\327\341\273\331\266I>\352#\2758\310\177;>\210\010\220\276i\027\213\276\315>\033\275\027p\363\275\221!\337=s\347\236=\321\307z>\320\301\234=\211\002\240\275\256\006;>l\307\267=2q\257\275\332\306\212\275n\203s>\334\361X>yzE>\323W\317<\226G\273=S\200\221\276\001\033\206>\332\222x<:\331\013\276j\"\314\276\226[\373\274\261\303;\276\320~3>\034\225X=\036\373i\276\024\245\345\275JJs<\204M\036\275\322\242\257=^\263\266\275\026G\250=\010\342\200<\261\262\270=\305iC\275\253\361\216\276\0326\336\274\275\341+\276\251?\337=0L\024>\3069#;;<\316\275\357T\312\275\235\353\256>\271\242\200>K}%\275\335\320\377=|\214T\276\272\227\211\276\360u\026>\262\003\245\275\240\353\013\275lj\204\276\362\202#\275\342\033\014\276#\200\201>c\3003>\374\266\272\273x*\244\274\273\301\240=DO\210\276e\327u<\362\377\006>\025\211>>1\335;>Wh[=\252T\330=~\211(\276\333li>\230w)=\310\027-\276\310\036\205\276L\002\255>\232lR\275\332\3363\276Rk\210>~\320]\276\310\000D>\037)r\2723\257\301\274\230\372\205=\214\375`\276\000\346\005\276[]\332=\373\221:\275\334\036A\273\347\300\353=\006U\333\274\301n\036=\240K\224=\006^\220=x\230\007\275RA\336=\276\251\013\276Y\007\017=\303\225z<\313=\274\273/\001\327<\213R\224\275\322\3303;X\375\237\274\222\014\363\274w\274\271=\013\253\016\276\207P\341\273b_\372\275\243U\345\275\336\273l\275\303\t[=\025\036b>\330\340\253\275]\033\377\274\266\001\322=\316\357M\275zo|<\244,%=j\265\244<\323\023;>g\264\360\275\307\345\266\275wx\270>\345f\301=\266W\204\275\021\372\261\276\257t\r\275|\307\241\276\000D4>0p\034>\3445T=\216\373A\2753~%\276\3674\235=\374;\314\275\001:C\274O\003\272=\206wi\276\333a\264\276\341qB\276b\317\305\275\027O\254\275\215\034\207=t|\272\274\005F\246=\337dH\276\271\007\311\275<u\351\275O\031\224\273tWC>\313Y\210=\241\023\231\274H\331\344=$\374\377\275\233\303\244>\330\000\017\276Ps\217\275\213\3545\276vY\220=X\022\333=\325\322\215\275\2015\370=\306\314\007><\'\033=1\303\357\275X0-\2764\201\276\275\220\030,\275\215a6>\314\267-=\0350\360\275\2474\241=\232\037\227\275\253\315O>\332\327\212\276\325a\345\276\275m\230\276+\363\342\274^\2232>\275;\303\276Fdd<9\030,=\356T\277<A\365\317<g\006\230>\372iT=b\005\262\276\201|\245\274\020\311\365\275|\301%\276<Od=\301\221\251\275W\214\357=D11\276D_\226\275\356\321a\275\t\023\214=6\037\031>\227\230\024>q\001\262=\262\032Q\276\327\206^>\306;\246\2736\325D\276\200\205\271=\201^\210\275\315^\224\275\301c\204<,\010x<\373)\302<MP\212\276\310\230\271={\206q>UG;\276\224z6<\366\r\210\276\254\r\325\275Y\031@>\274\005r\275\010\035\262\275\351\014\036=\277\010\224=i\352I=c\356\234\275\021m\027\275\317\305`\276\032*\004\276\214\003\005=\312\257\005\276\tjD<t\005)>\301h\032>\271K\262\273\324\365\276\274\3062\342=\342A\250<EbG>K<\223=8F\t=\274\232\233\273\255sk>\314\222e\275\302L\351\275\266\0161\276lBs\276\246x\354=\314\205e\276a\360\n;\271K3\276.\252\210=\221\235\215=\270\377\307=\363\351\332\275\360\210\331\273wa\261\275\002T\204=K\351\203>\324\244l\274\227\023\211\275\032\326\220\275\036\010E=\304j\232\276\010\252$>k\311\024\276t#\014\276P\310n\2762\025\224>:\221\242=\231\207Q\276\224*g>\332\0264>P\276\000>\245\006(\275-\311R\275\005\277\203\274\216\006\205>\272\317\204<z\231\243\275\365\356 \275\264\221\\\275\371\362\232\275H\375\003=\020\210\353\275v\203\222=\332\215\222=\350\321\240>\227\223\321=F\335\213=>z\t\276\346F\344\276\r\177\'\276T|7;bQO\2749\303\326<\327\244\t>u8\362=KN\216\275x\272\016>K\314\002>f\343\241=\306\216s<\340\017\220=\005\261\246=\242l>=\333\213\203=\316\274A\276Y\311I\276\376\247:>\013aA=\374s\376\275\3735<<\315%\016<\346#X\276\013\273\037>?\026u\275\361\277^\275yI\230\274\201\266+>x\013\215\275\252\336\214\275}\005\004\276g\331\205\2763Q/\276\333\303\025\276\310wV<\037\'\004=\017\0239\275iA\213\274\006\233\307<&\2201>\\\305\210=\315O\307\275\237\020\226\275V\021\331=\220t\216\274u\361\376\274Pl\372=\214\201\354\274\n\001\266\276|\214\275\276\2715\264\276\004B\266>\332\007\014>\363Hl\273\010\030\331=B\005.\275\216\016I>kW\266\275\t\374L=\215Ho=\252\242n\273\222\023D\2758\204\306=\027^\203>\264\215\303\275&\244\023=\373\222\225=\304\024\364;*8\256=J\230.\276\300N+>\362\274@\275\2630\342\275^\316r>\314\356R\276\254\313\224>\251\036\224\276>\356\353\275\016\365\271\275\3638#=\221J#\274\224\335\200=+W\260=M\276\007\275\256\030\003>F\332\006=2\033t>h\206\r=\255\232T\274\364\354P\276}\201\245=\347\002\202=7\021\213=V\264\024>}\024\021\2765\313\231\276f\216r=,\235\032>\003\212(\275LzX<R\207\234\275\204=\t\275\002\363\334\275\356\014 <\347w4\2746\210L>\204\227\202=\220\2441>\014\316L\276cN\207\274\326\017\023\276)\327)\276\245\305#\274$X\020;\307\234\244=\315Pr=\261>X>\300\242X\276^h\372\275JD=\273\231a\032=:\235\031\276\340\347\365\275y\320\214<\344\365\205=\310\327:\276\244\215\031\276p\276\005\2764\030\245<V\240\266=g+\200\275]\223\366=j\016\202\275\275 ?>\002\323!>j\260x\274\030\277\265\275\303\013\\<.\366\007;\3067\257<\nI\017=h\344\030<\366\373\237=gK\245\275W\213\005>\000\255\232\276\\\377f\275\266Y\341=\374\277\205\275\221\000\246\274\367. \276\315ad\276r-F\274>\370\335\275k\360\264\274uJ\304\276\001\312\270\276\337\216\371=\035\210\253=(~3>\034\277\242\275\241\273\026=\252\013\032>;\007J\274\223)\275<\350_\256\2760ai\276\r]\270\276\te\\\274\244[\n>,R\214\276\2514\242=\244\3666;\227\222\376=W\310A\2746w\016\276\343\005\240\276\372b\303\275R\223\324\275m>\005\2760a\232\276\310\366W\275\363\021\335=Z\355 \275O\327*>\310\300\237\276\177C\261\275\250\251\242<\227J\033\275\351\302\204\275d\020\025\276\215\353\227=\205\375\n=\365]\211<Mj;> \244\020\276\305\312\205>\325\323\222\274\016\272!>\320\377 =\017\036;=ra\203=\034\331\274\274\t\227\372=\374w\r>\010\270X>\274\003\355\274a|J=\205\304\231\274I&\377\275\361H\034\276\304e\233<\235\001c\276\314\006:\276\333\016\016\275\316\304+<\350*\025>\017_\245\275\006\'\201\274?\037\261\275\217\221\302=\254A\200\274\245qL\276\033\317x\276\205\217\226\275\031\033\301=sQ\312=\310\210\340\274\304\300d\275\021\330\027;\205\016\224>\023f[\272|\207*>2\303(>\263\t\204\276\006\355\r\276\013\217\217\276\275\033,\276\250\031\313\2767\376\031\276\226\345\344=\267\2539>\201\303\277\276\305\236\366\276\306\264:>\355u\257;^\254\002>\261\313-\275\267\215\017\276\316=g>|Q4=\244\221r=J\267\215>\307MW\273a\360\226=F\217D\275JkI\274\352\315 \275\224\272\005>\016k\261=O\216\226=\264\270\203\276\317X\270=\203\035\277;\202d\230>\000\341;=)\001\206>\247\300!\275\344\016\003\276\346\244\244>nQ\025=J\272,>\367!\260<b\'\343=\006s\311\275\223\002]\276-m\010>\343_\275<\'\347\302=\326\253\312<\303\226\'>\241BJ>r\306!=7\271\275\275\203o\024>\363\331$\275d\033Q>\035b\016>w@0=\211\314@\276\215\254N\276\n~\333\275*\335\322<ba\031\276\251\251\016>\250\017\276\275\332\204\226< \001\003\276\303\241\006\276\255\335\255<\375!d=\357!\271\275\367\304S>\312\360\037=\304\375\372<.\302\034>\377a\222=\374\317\r=\'\327~\275\205\324 \276\331\"\\\273\272\006R=\237\177\300=\236B\371\275\353:\327\275\262m\000\276\335\0202\276u\370\210\275\020\220\215\274`e\255\275\335\240\302\275\322\350\205>iV2\276\341\332\250=\0014\342\275I\366`>\177\377\337=wc\007>d\025\240\276J8\222\276\360dH\276\216\026\322\275\364\353W<\351\t\336\276\035j\036>\013\'\340\275\314\377\276<=\2610\276\322fJ\274/\231\245\275\304\367\202\2743\004\016\276\370\311O>\373\264@=\364\0217\276\367\300Q>\304\235\264<\376\025=\275\020\314\212\276\246\330\364\275\237\246\201=\221\010\025>\366\202\024\274M\243\260=\342\231g=M&\r>S\340#<\273ZH=T\010\244\276\335\366\036=\022\202\316\276\326\312\367\276(Qw\276q\205\256=\307\'\017\276\020\224\215\276\255zB\275m\274i=\026\006\324\275\241\221\002>G{\231\275x\003D\276\262\024I=\377\271\224\275\221\354#>\274\2234\275\rr\022>XG\247>\260\022\266<.]\001>0\3712\276\204H`\276w\332a>O\200\271=\t\217\235\274p[\310=o\245\204\275\016\325\256=;\346\r>\035\243\017\275\370\324\241\276\245\303\374=\264\337V\276\"\235\201\276s>\263\274T`\344=\027H4>\212\257\240\274\371\313\252>&\245\364\274\022}\020\275\240\240\223\276\212i\310<\025\312\340\2747\"\320=\223\332\314\275\277Q9=\256b3\274M\265\243\274\341\274F\276\353q\331\275\226\324\342\274S\330\226\274\273)\210\275m\204\273\275\231H\t\276\214<\270=\014\211\273=\030\177`>\265\344h>\251=1\276\206\344T>me\243=`\"G>g\355\207\275\365\324\006\276\257\244\377\274}HC=@\347\266=2?b>8\312\225\276\355\225\200<l\267\236=\217m\000>\234\223\245>Zt\205;\037\002{=\240\266\351<\321\306\217<m$\302>4\236\'>\360SZ\2769\343\204=O\225\207=D\212\036>yh\321\274k\370\220\275\250\020\277=\222&\251=\033\373N\275\2268K>V\246\214\276h0\213=\275\277\032\275\213\312\212>C \274;\320\261\231>\322\351;>1cv\276sd_\276G\251\007\276\340\235Z\276\275\310\360=\242\002\t\275\00222><\233`=\205\257\227\276\013\022\351\275nM\355=\347\026\232\275\342-\027>\334\300\225<G-\204\275\311\375\214=\352s\227=l\257\205\2754\225G=f\344\n>D\3738=\007a\373=_\022\252=\343\1775\2764lt\275\336\234e\275\024\321\224=\371\321\271\275\226|T\276\207\237$\276Y\226\351<t\225h=\312R\202=)l;\275\327\272\203\275>\302\023>b\265\213\276A\242p<\322\325\307\275l\231\342=%\267\336=Y\320;=90B=\341sO\275\030\306K\274\3227\377=\254\351\365;\177\370\001\275\256\333a\275yYd\275:\315\350\275\342\275_=\3170\025\276\206\302P\275\325\3131\275\241\231\211\276Tq\373\275\362\214\363\275BEE>\374&P\275\201;\215\276\267\202\025>\263z\201>L\204&=\016\3056\276\340\300\267<\364\235:<\326u\263>\304!\271\276\r\310\252=:*\023<\\\236\211=S\223}=OK7=\311wF\276\032\350\270\275\324\324\206\276\313\377\336=.\331\322=T]\200\276\362n7\274\264\200\237\274\014\227\t>\314\323\267\275\216\016\202\275\270\025\230<c\301\215\276*v\370\275\253\201\025=\303:\203\276V\207\215\275\336FW\276\260\316\312\274\253\030\304=\360\030\222>\025K\036=\265\357\017\276U\245\331\2750-\211\274\345\203h=\370\235\275\274z\004\203\275\322/%\276\360\366\213>\243\232o\276_5/\276\n\3554>\030]a\276\231\202\202=\275\007\317\274\325\267y=\2719\352=Z\263\030\276c\006\020>\2628\010>\247\273\036;\2676U=\177J\272\274w\311*=\034\377\227\275\305-F\276\227-\264\274\241\241\263=\377Q{\274\262\202\254\275\266.\344<C\341e\276\n\3131=\324_\014>]\214W\276\016\317i>\211\263\010=r?\213=f\032\001\275\377\300V<|y\217:\007\314:<\360\372R>\2700\001\276_Yl\276\"\3270\276\033\301\314\275Pe\270>]\035\314\275\221\255\302\274\'\017\355<G)\005>/\376\244\276RW\201\276\026a\304\275\206\206\343\275EL\236>\2026\003=\004V\275:\237\301\302<\270\234W\276-\037X;\323w\034>\347=$=y\0350\276\327\374Y\275\222\006\3358/&\034>d\003\271\274\332\020\'>\251\244\266=\271\347:=\235\224\316\275\254\277\234=\324\343^<\204\177\022\276W\355p=\252@8=%\3619>\352</<:\010\214\275\252\272\017<m\274\002\276>\0331\276\037\320B\276=\2723\276L?>>\235\353\r>\352\305\013>M\'J\275RBe=\222\261Y>\003l\237<59\236\276\034\003|=_m\205\276\362\001\227\276\023\017\236\276\255\376p>Ky5\276\377\241>\276IG\231=\365\235\341\274p\245\303\275N\272i<WPW\276#\2749\276o\201\310<j(>\275\222\nC>\310\311\215\275 @\244\275\321B\207\275\250#\300\275[U\021>9\321\357\274\253\341\312=\237I\251<\312\355\273\275\030\226%>\004\276\253\275u\034\007\276&|P=\307r5=k\223\325\275\236\t\266\274\252\265\225\275\333\333\337\275\2551f<F\227e>v\001S\275\027\303\346\275\344\262A=\342\370\007\276\221D\306\275\345\312`>ly)\275S\335\313;?_\376\275\273?\255=\211C\324\275w\241\273\2754\227r\275\210\266\030>\037Y\204>\326%?<\335Ku>p\310\003>\r\026\004\276\026\203\213\275*\n\003>\255\244\351\274\240)(=\200(\303=\377>\220<\031S\314\273Q\205Z\275\274??\276\314\370\010\275i\312\222\275\217\223M\276\203\014\241=\226\241\235\275\2017&\276\352\004\350=I\301\242\276\211%\206\275Z:L=\212@\343=\211H->\265\215`\275\035\251\020\274I{\020=K\023\301==\223\233\275\271Z,\276jp2\275\\\220\250\275\334\\\235\274\\\035Z>\"\200]>\374J\217\276\244\361$\276\267\260\032=\273\006\032\276\244\276[\276\322o1\276\273\034\037\276\307\246\247\275\310mM=~\375\232\2757!\245=\300\350N>\t\373\033\275\255\003\314\2758\232\217\275t\027\240\276\346\333\004\277T\240\303\275\325H\241\275\256\265\177\276\360j\013\276r\223\023\2777!\336=\010\310\200\267\265\034B>#\271)>zY =\340\265I>\212\377\250=\201\262\262\276\3367\036>\353\227O\275\035\275\304=f\315\027=\014\017H\276Yp\301\273 x\232\275B\342\312=\250,\337\275\272&L\276z\252\337\275\220\371\004\276}\360C\274RY8\275\304\201\242>\017|E>j\215\024\276:\253,\276v\324\251\275\212\376\013\275V`\013\276\222U\003\276\t\347\000\276\242~\262\276Dej>\025\030J\275R\241%\276\324\344\000\276e\344l>\350\002\206<A\257\021=\177W\034<l\243\301=\221\003\005\27604\007\276a\035H\274\272\314\333\274\021\035j\276\177\311\203\275\2308\240;\014\214Q=;(\222=4\213\244\276OO#\276@\037\225>\207\001\250\275\':\320<Eh\000>l\255\245=cx>>\317\020\236>W\370\271\274\215\353\241\275\275\357\n>\224@\320\275\242\014\310=\216\256k\276R\007V\276\354\323\n\276\321\200)\275\266\251\302\274\313\211$\275\200\177\005\276\023\205a=4\235\241\274\r4\034\275\307<[<\375\311\306\275\215pg\276\312\367\001>\025\360c<\317y_\274\036\262\333=sO+=\361_\236>K\037d>\251\264-\275IZ%<Z\266\016=\026\257l\276\322\347\231>\342\200\010\276\215\372d>\246e-\276\216\003\233\275\313,\302=6\354\030\275\313\356+=y\342d\276.R\213\276$\353@>dQ\357\275\231a\256\275`\271\377\275\242K5\275\245\2317=\257\037\317\274f\344#\276Qe\311>I$}=\253^\204\275\213r\035\275\256\007\211>\320\307{\275i\315\214>z\021\213=\230y*\275\306\007\243=\321\\E\276R\211\365\276\361<\n\276i\304\366\274\032\351Y>\216\000l\275\210\365\201=\232\245\200\276L\370\245\275\204\023\231=q\005\231=y@\024\276\245^\304\275\302W\034\276\232\025\002\276\022\343\013\275Y\226\340=\3126G>_8\257\274\023S\013\274\033<\'>\037\374\210\276\007\257\302=\353\264\036=\217\210\002\275\352?\030>y\3033=\236\361\002>{\254\035>\014E\251\2751\264\027\274*\343\242=m\223\177\276\267\250\377\276\201\247\333=)t\032\275\304\236\264\275/\316\206=\364\226-\276\026h\202=\2139\342\275\016\261\216=\206\376\031>k\253\005>\'\215\354\275\364\305\026\276\274dB\276N\030p\275\350O\266\276\201\377\351\275\031\371\202<\236<\025\274\231\312\326\275\313\377\203>\327\322\333=\025\'\202=\341v\226=\312\204W\276\276\341&=A`\226\276\270\334\204\276<\222\337=\253}\232==b\203<z\362\360=\232\267b>\014\331A\276\2641A\276c\3146\274hB\003>\222Kc\276p\013r\275\250\257v>\364{g\275\226t@\274\204\271\003>\236\333\242=r\304\206<\311E+=\316\200\337=\251\257\365\273=\330\025=\327Q\307;\364\222j\276\265z\006>\212\252\353=\315\021\206\276\205\212\362\273\247\221q\275\235\263\315\275\331\373C=\203#\365\275&8B\275\322\001W\276\350\326\210\275\304\362\216\275\355\325\325=_N\216>\257\351\013\275C\362\203=\355\2532\275\017\3116\275\343\227R>I\025\002\276\020\230\233\275:I\306\274d\252\002\277\2307\267\2757\376\037>\320\325\r>\234~\227\276\251\032\021\275\264e@>\242\335t=\226\353\336;S\223\010>\\I;\275\021\233\261=\373\202y\275\221z&\274ae\361\274\250N\263\275\021x\224=\333\342&>l\tP>:\213\301=\003s;\276\311\332\216=q\226\023=\'D\225\276\210\242%\276\214\025\322=\373\325\263\274\343<\016\276\3504S\276\266b\273\275\234\3321>\347eg\276\344\023\240\275\307\0019\276\241\270\n>\212\035\016\276\254XX=$\345\242=\r\025\033>\204\001\024>\272\212X=\333\037\r>\313I\374=p\273\004={\265\332\276p\273\020\276\022t\340\275\347\177/\275\t\035\233\275\217X\014\275}|\334=^`8=\034\2129>O\022\301\275\222\203\036>\350c\016>N\226*>\373\236\302=\022?n\276\354\326\025\275 \210F\276\227\263\221<\262\267\311=;~^\276\3158)>^\277\375=\\\031\224\275\267\021M\275e\307\t\2756\237\331:\316\200\247=\275\364\274<hL\223\275ci\\=W\267\201=G\2218\275\177\227F=\271\330\325\275\027D2\276\207\347\253=:G\224\275\233{\024\276\376y3\276%Mm\275i\0041\275\274\373\203\276Kd\321\275\005\342k>||\014>S\234\006>\252>\014>_\243O\276\302\017\204=\261\356@\276\353\'/\275\346\3273<:\267@\276=n;\275by\303\275n\335*\275JK\014\276\'\2443=iy\303<_\354\344<}\031A\275c\226o=\237\004a>\"z\342=\262\243%\275\234\021\232=\267\227\251\274\321\017\226\275\234\215\352\275b\277\006=gN\370<b\357\007>\371q\331\275;Z]<\344\0238\276\351\345\235\276Rge=\357u\376\274\317\302\027\276+\245\254=W\017\330\275\360!\037\275\013\0302\275\260q\302<\223\246?>>\224\021\275\023R\335\275F\346,\275\247\024%\276\265\322\025=\275,\263\275\000\346\220=\372K\316\275\032\021T>\004\177\024>\350\236\227=\037h\241\275e\016.\276\322\375S>3\262;=\002\212(>\364\222?=\262\021\207<\032\001\234\275\314\027N>8\0132>84\362\274\273[\305=\023i\310<\003\221\010\276\022\273\010>t\342\034>\327\214\225=` 1<\337\214\355\274\326l\\=bD\'=M\\#>|3r\276\306Cm\276 \247\355\275\034,z\276Oc\014\276\356\234\235\275Y\306I\274\2102%\275\032\205\350=\tw=\276\010 \"\275-\252\357\273J\004\220\275_\177\272=m1\240<V\236\316\275W\365\016\276_\222\030=;\302\013\272\\\n\353=/^\t\276j}\220\275\376\333b=V\311G\276\326^\017\276\262n\004\276OD\323<\266J\367\275\\<H\276\327XZ=\320,\335\276\224|\013\275\030\'-\276\365\024A>\372\326\013=?#\232\275~\237\332=K\231\205=\r\201\237\275\330P\352\271;\246}<\342\203\002=\315\221\245=\271h\r>\312\007\207=:D\275\276\260H2\275\2746\235\275\300\033\036=\235\0326>\322\022z\276(\246\332\275a\004\226\274\326@:\276C\003\255\275\350\200\201=\276\025\370\273X\256\352\275\3421\036>V\032\260\275-\316\245\272\223\236}\275\346.\321=\307\377z=\356\224\204>\331n\367\275\201f\031>\313\221\014>\372\341\201=\277\2632>G.\304\275\220\024i\275!\331\376=\302\037\341\274f~k\275\317\250\315\275\216\333\243\273\017\330i>}\027k\274\321\0376>\035N\306\275\211\255\215=\016\336N\274X\376?=^8\255\275C\0141\276\237\001\227>\020\231\303=\333}\212\276\213\215\000\276#R\263\276\013\270\203\275\014\345\246=\241b\340=\372\303\300=\256\265R=\342F\244\2750ZX>j\353\323=\320\377\001>5f\027\276\230\030\227=!\335\362\273\274\312\215\2765k\263<\262\251\025\276\334\306\200\272\345\250\025\276-\213.=I\310\223\276:\360C\276\234\314\242<+Z{\276\305\377\332\275]>\350\275\001\324\020\2752x\312\275f\357P>\277+\005\276\350E/>\216\216\261\273\177\253N\275\306?\016\276s\203e\274\341\'7\275P!\024\276\354\373\330=\361B\315\275\n\3572\276gD\341\276!h\247=do\215\276W\021\300\276Iwu\274\304]\236;\376s\311\276\365d{>s\361X>l\364\007>\212G\347\275V\006\364\276\337\350\025>\336.\363\274\021\002\253=\375T\214\2754\204\207\275\234\261\007\275Mp\335:j\332O\276N\260c\275\340D\201\275\3720\263\275\212\330j\275\000\365\216<I\0066>\256\354\356\275\207\017L\276{\351\250\276}`\035\276],\224\275\033[\226=&0\016\2750M\363=U\002\020>c&\027>\350\215\225\274\3716\017\276\274)t=\352\350\323;\014J\275=\345u\372\2756*]\276\207K\244\276e\356$=+-\364\274\222\327`>\033\r\332=\203\346_>\275\233\273\274\321\'\327<,\250\336<\357QR\273\206\372\301=\231\304I><\223\034\276\275W\334=e\224<\276\017\335\331\275\341\317X<\237I\355>%Q$>\317\373\004\276\024sA\275g\275\n>%:\307=G\265\304<g\240\007=\240\202Z\275&\027\013\276;\272c>T-\313=l\274B>\255>}<\320\247\343\274Q\360h>\270+\211\275+I4>**#\276(\2242\276-\036\016>\254\205\260\275\224\261N=3\346\001\274\347}?>[\021\275\275\264\177\007\276\216\220\274=Y0t>[w^<\303i\213\275H\021\257\275\201\221\327>\246jD\276B\210W;\313\255\315\276 }\270\276\010\366\205\276|\357\260\276\317\223\251\2739\'%>fI\307\275fO7=l\325\260>R\314\202\275\001[\215=W\362\031=i\203\236=\351_\020>\\}\022<\372I\203=\222\373z>\267\222\r\276\311L;=[n<\274KI@\276\001\223\333\276%\013\360\275\346..\275\311R5>\270\226\007>\364\276\373\274\016\323\225\276g:\310\274\034\203\205>\377\300\020>;IH=\005\207n\276O@\314\276\2408o\276$\314\200\275\203\3214\275`NJ\274\277\231\037\276\246f\377=lFG=(\003\000\276\320G\230>\325p\323=T\035\t>\236:x>-\262\325\273\025t\241\274|\315\022>\344\252\377\274Yq<<m\306\300<\0379\215\276\371\301\307\276E\337\037\2758E`\276\335\345\260\276\037\252\310\2741\223\343\276\027\200-=\210.\302=\274\002\032?\251\336\356=\335\006+=\207\010\263=Z\201\323=h\241m>\202`\330=L\347\016>0\354\037=\354\344\006\275\262\241M\275\\r\352\274\263F\314\275\325W)\276\251d|=\330XB>\331>\233\276O\312\330\274\034\312i\276k\227\206\276\000\356(\275;\246H\276\335\004\017=\002\344\257<\365r\256<C\373!\276XM\002\276\355\333\217\275\316[=\276\310\227=\276\nI\350\275\0164%>\341\337t\276\300\337\020>H\235S=[\321l>h\"\017\276\245\254\016\275\330\237\272>\013oV\276\234\257\256=\t6\245=j\343\372\274M\224\376\275\231\2478<D\033&\274\255\037\223\2763\347\342\275\006^\305\274&z]\276\035\004\024\276\313\2619\276b%\371<\356\370\r\275\031\177h\276\341)\344\274~\211\177=\013\372&\275\365\376\344<\303\323\221=\037\'\360=\346&\275=2\242f\275\317d6\276\261(\200\275\231\321\325\274\000p\271\274\036\021\222\275=\017\036\276@\025\036>g\032\024=\200K\212>\241\375%\276\356\240\267<\023\337\210>\373\"\244=\234\347\242>\010\\\341\273\310aA\276\030\225P\275\235X\207=\273\177\264\273\210n\200\275\345<\244=\202\357)\275\303=k==\005\241=\036j\006\275\245\213\350\275\301z\306=\242X\n>=Q\020\276\2709x\274=\031\312\274\243\016\271\274\346-\305==\337#\276\265\027\320=A\362\370\275?3\031\275\222\206\303=\2226f=\226cj>V\225}\276\351\230+=TQR=\204\246I\276\322\360\253\275\254V\370\274~\340,\2767/\203\276\314\031\255\275\260i\311=\000q\251\275\363_\262=\025\357\030\276\323\223\214<\203\375\253<\332~\276=.\264%\276s\362\337=\260\217->\241{\277=\025\337\216\275\304\242\301\275uE$=\236\341e; \363\003>?\250\001\276\236\216i=\004\357a>\251\353\004\275\027N\212>A\030\274=Q\242\340=T,!\276\243F\'>\007\370Y\274)j\224\276\324/\375\275\314\211\333\275\370\204R\276\'o\301\275K\313\327=\314\345\373<\257\020\367\274\325\230\205=\021\257\000\275(D-=\363\345\031=,\324\017\276\237,`\276\\GA=\206L\274=e\255\375=\344\257\371=\034\017\202>\275\276\334=)\327\271\275<\254/\276\262\355\020>cQ\247\274*\276\360\274\217\2716\276\347\030\314=\316\0005\275A6\001=\376\336\202>\363\244!\275\364@\216<Z\211Z=y\236S>\237\212\315=\030\233\305=\234/m\275\334\375\366=\267\342\007>O\n\216=00V<q\211+>\304\2552<\313\270\336;\t+\365=xl\332\276>\214\014\277l\257\336\274\231\377\032>$H\350\274\270\013:\276t\023U\276R\227\220\275\376:\032>\007\321\026>G\341v>iZ\364;7*!\274\032Z\036>\363\267\004>\350y\021>l\005\005\2767\202->\205\373\251\275\277\341;\276\260\305\365\275\376\370|\275:hs\275\354\033\362\274\247f5>\0074f\275\352\376b\276\035\257\246\275\2648\\\276a\340\005\276v\372K\276g\2257>pOq\276\347\323\024<6\254\006>`(\022\276^\270 =[|\267\275\025\014\022>\253\245\270\274\271\353\214\275\220xA>\'I\213\274\336\201B>V\2653=\257)G=\323\324\216\275)\274\024>\'\217O\276\207HI>\225\023]=\247\\\333=$?\321<\267$%\276 \3525<\2377\342\275\240\214\007>\304\320\225\275R\353\360\275\032v\264\275U\006\305\275f\010C=\300\301\n\276\'h\260\275?o\340\275TqQ\275\025\257\343\274\3064\233\275\252\306\005=K\033\036>\336D\017>\321\311E\275FE\013\276\303\205M=\312\327\313\275\277at=\333I\036;\310\217\355=\337\234\351:\234.M\276a2z>\212fg\276@v\205=\314\362A>\274\277\223>!5\002\275g\312\001>\276,\003\276l\332\206=\226\376M\276\373h\027>r\265\256\275\006\346\t>\302\313\026=\274\215*\276d\353\016\275(\331\025=5\233S\276\254\363\037\276p,\244=yf\014=\255At>\034\320\363<\027\324p\275d:R\274-v7>S\256w>JJ\370<\333u\016\274\325T\357\276\213I\301\275\n\211Y\275\272\032_\276\261\260\376<\206i[=\257R\333\275\255\345\257=R#\266=9\334D>\330P\274\2753VR\2761\363\004>\031\202,\276\t\275\216\274\223\240Q=\321\355\033\275\204\0072>\323\0310> \374\221\276\323O\307\274|\371\263=\360(@\276"
      }
    }
  }
}
node {
  name: "mnist_model/conv_3/Conv2D/ReadVariableOp"
  op: "Identity"
  input: "mnist_model/conv_3/Conv2D/ReadVariableOp/resource"
  attr {
    key: "T"
    value {
      type: DT_FLOAT
    }
  }
}
node {
  name: "mnist_model/conv_3/Conv2D"
  op: "Conv2D"
  input: "mnist_model/maxpooling_2/MaxPool"
  input: "mnist_model/conv_3/Conv2D/ReadVariableOp"
  attr {
    key: "T"
    value {
      type: DT_FLOAT
    }
  }
  attr {
    key: "data_format"
    value {
      s: "NHWC"
    }
  }
  attr {
    key: "dilations"
    value {
      list {
        i: 1
        i: 1
        i: 1
        i: 1
      }
    }
  }
  attr {
    key: "explicit_paddings"
    value {
      list {
      }
    }
  }
  attr {
    key: "padding"
    value {
      s: "VALID"
    }
  }
  attr {
    key: "strides"
    value {
      list {
        i: 1
        i: 1
        i: 1
        i: 1
      }
    }
  }
  attr {
    key: "use_cudnn_on_gpu"
    value {
      b: true
    }
  }
}
node {
  name: "mnist_model/conv_3/BiasAdd/ReadVariableOp/resource"
  op: "Const"
  attr {
    key: "dtype"
    value {
      type: DT_FLOAT
    }
  }
  attr {
    key: "value"
    value {
      tensor {
        dtype: DT_FLOAT
        tensor_shape {
          dim {
            size: 32
          }
        }
        tensor_content: "\030\326(=\345\252w=DH\251;\332\205\223\274O\177\361<\000\307O\275G\030\277=\236\367p=\2159\223\274\300\036j=\211:\200\275b]\227=>\3261=\006\256\306\274\177c)\275\024k\267<\251\245\t=a\225\353\2750\240\342\274\267\277\\=K.\245\273\251Wb\275+.\t\273\332\372N\275i<\201\275\333\037[=Q\324\330<\331\305\223\275\237\010\245\273\372\350I\275\027\301\037\274\345\235s\275"
      }
    }
  }
}
node {
  name: "mnist_model/conv_3/BiasAdd/ReadVariableOp"
  op: "Identity"
  input: "mnist_model/conv_3/BiasAdd/ReadVariableOp/resource"
  attr {
    key: "T"
    value {
      type: DT_FLOAT
    }
  }
}
node {
  name: "mnist_model/conv_3/BiasAdd"
  op: "BiasAdd"
  input: "mnist_model/conv_3/Conv2D"
  input: "mnist_model/conv_3/BiasAdd/ReadVariableOp"
  attr {
    key: "T"
    value {
      type: DT_FLOAT
    }
  }
  attr {
    key: "data_format"
    value {
      s: "NHWC"
    }
  }
}
node {
  name: "mnist_model/conv_3/Relu"
  op: "Relu"
  input: "mnist_model/conv_3/BiasAdd"
  attr {
    key: "T"
    value {
      type: DT_FLOAT
    }
  }
}
node {
  name: "mnist_model/flatten/Const"
  op: "Const"
  attr {
    key: "dtype"
    value {
      type: DT_INT32
    }
  }
  attr {
    key: "value"
    value {
      tensor {
        dtype: DT_INT32
        tensor_shape {
          dim {
            size: 2
          }
        }
        tensor_content: "\377\377\377\377 \001\000\000"
      }
    }
  }
}
node {
  name: "mnist_model/flatten/Reshape"
  op: "Reshape"
  input: "mnist_model/conv_3/Relu"
  input: "mnist_model/flatten/Const"
  attr {
    key: "T"
    value {
      type: DT_FLOAT
    }
  }
  attr {
    key: "Tshape"
    value {
      type: DT_INT32
    }
  }
}
node {
  name: "mnist_model/dense_1/MatMul/ReadVariableOp/resource"
  op: "Const"
  attr {
    key: "dtype"
    value {
      type: DT_FLOAT
    }
  }
  attr {
    key: "value"
    value {
      tensor {
        dtype: DT_FLOAT
        tensor_shape {
          dim {
            size: 288
          }
          dim {
            size: 64
          }
        }
        tensor_content: "\004\342!\275\336}\013>\363\t\212=\177\275J>\320@>>\321\213$<\210d\367=M\273\300\274\307>\222\276[\022\327\275\351Q\230=\265\340G\275\'Y/\276\311b\234=\377\307\213\276/\300\235\275\340Q\317=\272\027D>-\207\363\2753\037\032<\033\347\340\273\245\256F<\34186>z_\243\275\036+\000<\266\236\033\276mZj\275\032\3434\275\362\"\260=\374M\202\275\253\314}>B\250\334\275\254\365#>\"D\003<\030\322\006\276w_\205>Z\356\210>J\031\262\2751=*>\246fC>\255y\356=cC\231=\r?\032=\340\342\005\275\232\2669;\020\204\\\274!\317\344\275>[\025>\021s,>\357\006\213\275\r\362\352\274:\327\200>\242G\021>\034s\357\273\022q\200\275Q 6\275<\332)\276!\021=\276\305\246\244\275\350\342\216>\356tz>\226mq\276\357\035\2079]0\216<yw\337\275\034g\033<\251\266\265\275E7\n>\337\022\035\274F(\326<\"),\275\032\230\353=\257\306\030\276\035\231\250\276+a\375\275\317\276.\276\211\016\370\274\340L\010\275H\343M\276vh\210=,d-\276h-?>W\254;\276\256\313\010>\326\211\006\275\222\335.\276\341\246X\275\034g\267\275\247\315l\274\311\316\212\275\361\333\213=\220\247\036>\214+\211=\037.n=N\217\004>/\310\302\274\367\3766\276\366z\017=2\024\227\274f\313R=\362\270\027>\233\236\r\276K\027\355\273L\3144>\327\351\213<\212\305l=\305_\314\275\206\207\256\275N\343\205\274\233^\003>\357N\025=\351\021J=W\361\367=Q\n\024=\363\350*\274\2268\243\275\003:\333\275\006:5=\205\024\227\2752\231\341\275\237\210-=\252\037V<\314:4\276[m\265=~&a>q\373%;\276\302w<\006\025\224\274\002\351\025\276D)^>R\337\264=8\010K\275\236\020a8 P\362=\321N\020\276\331Q]\275\322\023\"<_\365\245\275\312\375\t\276\276\214Z\275\354\205\346=\307\344a\275\215\270p\276\255\353\'\275\255&t=\225\271\301\275\365u\366\275\250m >\2421R\276\237\347\235\275\334\247\202\275\375>\227\275@\372\036\275\344|\215\275\234h\331\275\204\373\242=rB\332<\024\032\225\275\374\254.>\365\310\257\275\340\340K>w/\244:r\303(\276\272\212\262=<fl=u\223$\276*\034\321=\271\251-=\034,S>8\036\031>\346PE\274\301\032U\275{\305\273;\233\354\307=\253F\271\275\274n5>\035\251\336>\327\\\230\275\260\255\032\276\216\252\325\272\034yr\275\021\202\326=\r\323\305\276\010@d\276p\303\024=\370\022\313\273JR\r\273\343\314\306=\272~\246<\274})=\264N\034=F;G>V0\257\273s\274\235<:\242\215=)4\301=2\322O\275\340q\302\274\277\234\337\274\013\233$\275|\363\334=]\217\002<\216\027\366<4\300\357=\\M\032\276\006\314\033\275\2163#=9\222\362\275\020_\327\275\016`\267=\231\0354=\301\357\333\275\211\225\004\276K4\277\275\333\201t\275H4\253=\007D\271<\021\304P\275\tn\024\275\352\001\276\275\211\261\026=\207\344\366=u\2240\275\tl\224\275\032\212\r=\330\273\312=Q\274\255\275\234\002F=\323=\026=\t*\"=\224?\207<\347O\231=\270\236\246=E\334\027=\346N\317\275\277\272=<\206~\244\275-\231\323=\365c8=S\000\352=\346\375\254=_-\217\275\362V\261\275\352H;<\325\251R\275\331\326]\275D\357\027;\267\"\221;\000\372\330\275\254\206\223\275cw\374\274\330Pj=G\257\231<\270\326\002>ZIg<\214l\273\275T;\220>*\332\036\276T\336\234\275\344y\313=\013\010\350\275N \r>\224\347\214>)\374r=6\232\337=\260\245%>\273q0<\230t^=\247\321\221\275q\251n>\362\261\030=\203\226$\276\3300\275\275\361\245\004\276F\341\035\276!\320\203=H\023\203=\305\342\204=\347\211q>j\343o\275Z\223\375=%\273\250<Y\003*\275o\351V\276la5\275{\305m<!\361K=\344E\252\275R\262\227;\326\215(< Z\360=\007\031\343\275\304\3036\276\232\314=>\223G\254=\234\204\334\275\350\235==\2217a\276w3\251=\371\310\376=\251Nd\276\354\330#\276\265\215\031\276\021\301\371\275o\322\257\275P\306\272>\022\002\031=\334\256#\276x\272\270<\351\254\375=\033{9\275|o\214>\262h~\275\210D\267\275\211bj;\247\322\265\275[4Z>i\010\360\275#l\003\276\353\255\232\276\335\345\360<<9\251\274\026\037\303;a \014=\241\261\227=Dd\004=E\"\017=x2P=\221\253L\276\037\004\307\275l\237\362\275\241\203\350\274c\254\275\275\374f\367\275Je<\274\032\n\317\275&5\'>N\177\346<\352\266\025\275\010\330a>\366\223`<\306\251\336\275\024\342\204<b\350\252\275\261\321p>\275\242[\275\232\3236\272w@\t\273J\213\376=\325\343\214=1Y\027>\032\0238\276:\206\352<\360\310\\>\277?\211\275\353P\372=\230\342\304=e\333\016\276\315\264\355=o_\204<\334\361\025>\226\234\004>C\353\363<G\363\033\275F\227\n\275\336\361\225\275`\263S\276\251\263\333=\330\230z<\351\356e\274\324\r\212\275 \323\021<\343\020\333\274h\0013\275\232\344\033=\353$\253;\177\371;;\030C\307\274w\"h\274\260\376\343\275=/\003>S\365Q\275C\033N=\232\276\206=\243\276\260>]H\241=\226\035\266=\231\277\214>\330p#>\365,K\276E\216\255>~\345\246=~\323(\276$l\267=J|r\272\035\214O\275\314$\213\275Tma\273\265]\204\274\255\277\226\276h\373\327\275\222\273\021\276\371\346\306\275\276V\026\276\006\014\353=\000x\230=\250\222\022=!\316j\276s~\t\276(\024\355\275\207b\323\274%K\004>\367\236\371=\261\2319\275Q\207\244\276\'\2331\275\217\335-\276\344\037^;KHr>\371\016,>\036>R\276\320h\217=\235\006\315=\335O,\276\215\035\226:\211b\006\275%\374\202\274\351\305\271>\025\376`\276\335U@\276_I\214=L\372\210\275\302%&\276r\277I>\366\010\017=$\357\305\275\215\341\310>,\006\340\274\272\352\214=a\020\271>\330q%\275\361\2708\275 $\304;\366)\225\276UR\n\276Cb\016>\345\301)=\010\237\350\275~/B\276T\367E>\352\254\276\275\233kB<(\214\332\273]\234\240=\030\023\216\276\306\r\335\275\375\344d\275\273\333d\276\204\261\256\275\375lh\276N\016\252\275\205\337\003\2763\035\231\275p\024\264=\331\321\256=V\202\212=\020\272G\276\312r\275=\235\267&\276\320J\263\2750\272N\276$\247\003>a\016\031\276\3761\321\273\311\325k\275\250\227\013=kB\022=2u\307=\033@?=\325\264\033=^\206w>\000\224\357\275\032\025\036;\273\'\333=\251\"\035>\320\374\256\2751\267\257\275\360\303f<egI>j\272\231=d\245R\276w\356A\275\265\354\233=\226\010l=\273\352d>\202\367#\276\3060.>\264\347%\276\370\317\253=u\r\272=\004i\214\275\032\300\177\274x\246\257\275^\267\260\276\246\271\010;j\234\013>\276\312P\275\311M+\275\355\017\365\275\221\305\360\275\356m\325\275\371\347\230>\256-R\275P\301\264\275\002\263\353\275\023\357\000\276\364\276\360\275T\313\006=@|\242\275a2\254=\351\254\354=\204\206\004>8\320\004=\315\214\230=A6\363:$\303\036=\213Q2>\346\226\202=f\357\016\276NP:\276\366\033\214=<r\303\275)\\\027=\264\254@\276\337R4\275\210\241M=_\020\356\275\241x >\232\205\242=\032\2420\276\300\233f\276&@\344<f\333\232<+\222.>Q\347\260=%O\344\275\306\306\220=V\224@\276\377\202\247<\377\237\n<O\205\232=\350/\350\2740\243\272\274\340\226Z\275\t\026r>\343\023b\275\"Q>\2759&\340\275{\031\342;\336{(\276H,\243<\371\226\022\275\301\213\260\275\3308\364\275\252\331c\276\366\374\270\275~f\361\275H\275`>\225\350\364:\317v\030>\211\021\312\275\244\234\231\275\346\210\202=\006\212\255<\271\251\203={\256\334\275\277(\213>\346T\321\274r\034\251=\255\002->QY/\275:#u\276Q\016\333\274\332\030\375\274\306=\217\276\234@\336>\251\216B\276KT0>\220\275\207\274Z\321L\276K\220\201\275\317\242%>\262\241P>\370X\014>\304\250\035:\314\243\t\274\337\007\305;\017\024\304\274\255\034\205\275{\014\204\275\t\254\213\271\305\366\360<\332\374)\276\006>,\276ra\032\274\212k[=\261\260;\276%\314\347\275}\330\251=u_\006>\345\337C=\014\023\004\276\024G\244=uZ\257=\235\250\017>\254d\\<=a\305\275\325`G\2760\362\217\276\247g\361=\302\314\202\275{&e\276\n@4>\271\023|\275\364\241\333=\232\375\315\275\335\001\276=2\201\022=9]d\275\333i\227\274c\031\212=\207\235\307\275\241\275\036\276\010B\327<\267\322Z\275\302(w\275W3$\2767l\234\274\341Z\003>]\321\177\276\365\330\302\274L#}\275\201h\001\276\036|W=\2078\265=}L\225\275\356\342\023:\030\217\244\2759\001\317<\301\334\231\275\2109g\276\232\302\250\274\242+)=GP\034\276\003^\243=\3774B\274:y\346=\262^\245=\334H\227=q\240#;lt \276\362-\315\275\205\205\336\275y\205\000<\272\240\234=\231\321\201;Ov\032=(_\215=\t\373\002<\234\007\212=v=\243\275\236m\000>\272\313\223>\266\275\206<\034l\357\274\344R\003\276\010\334H\276\261\275\330<\206\357\214=\257\222\020\275\261\023J\276\352\212\366<K\241\352=\357 s\276\375\002\242\275\237\323~\276\215\272\276\275U\261\345=\345\246\204>\252\267\017\276+\031\234=fO\205\275\277\177C\276\017\354y=8h\362<\004\263T\274\003\210\277\275\2472#>\375\016?\275\240\344!>\360\310I>k\352T\275\253\004\353\274\224\243B\275\360:\236=\211\337\246>\326\331o\274$Q\215<\304#+=\247>\225<\246;\337<\275q\243=\177\274\212=EP\354\2756N\304\273i\260e\276?\235^=\360\354X\275\020e\252\275\331\330\363\275\306y\305\274ob\260=r\3336\276\035\'(\275\034\266\240\275)\035\300\275\204\000H\276\2666\354\274{\237\372<\310\205\321\274\017\373J;\213QM>B\"\247\272\305\2203\274\210:\021=\337\263\356\274\341\034\367\275\354\267\224\274Z~\233=\327EB>\026\344\247\274~7\227\275x\033\031>\234\022i\275\200\237\211=\"k\351=\244V\243\275\273\212\340=okY>\243~\013>\003\010\031>U^\213\275\263d\317;\336j\020\276$%>\275B\262\320\273W\004:=\257-\360=4\352\022\273\233k\356\275.|\r>\007\036\r>4z\270=k\267%\276\022X\027\276\262\321U=\322\226>\275\336JW>1\344Z\276\024\265&\276\2612\276\275\370;m=u\216\023\276&\265\211>\241$6\276\305\200\t\276\333\2748<0\006W\276\307}\211=$}\301\275\335\312*>^>I\275\007o\201=\207=\342=g!*\276\217\200\272\275\207g\034>\317u&\276\310\327*\274\352DV\275\373+\231\276\305\307\274<\245\331i\276q\016\361=\330\211\223>\200\214\325\275\033\'\214\274\013h\010\276]\237\224=T\215)=o\035q\275\357\226\311\275[\265\336=]\225\316\274\356Q~=sQ\216=\317\325\200\276\223\016\253<H0\025>\373\334\360\274]\376\226=\003y\236=\326\213\021>5\323\373=\025!\205\271;\261\374\274\242\002\202\276[\206\366=\026\354w\276\341\3134>\230\303_:\225\314)\276\267Z\317\274\033g:\276\205\243\210>f\224)>\241L?;Q\215\277=\216\226\250\275\377\322<=p\230\376\275\356\225\212=\301%\327\274\304\274\236;\314+\301<\361\225\325\275\236\016\031\2765\337_>\036O\261\275\177\355\343=\345\314\255=\355\256\017\2761um>\025\016\244<\224\000\313\275\225\271\022\275\340o\r>x\305\014>tg8\275\315?,\276\013\006\351\275\235\362\252\273\221E\214\275Vnh=]<<>\013\266\334\275\275N\364=_$v=\030\312\374=\227e>\274%)a\275We\242\2746\340\006>\232w\032\275\321\333\020\275\377\224\340\275\035\263\231\273\030\214\333\275\013(\'\275mT\275=\177@\334\275TWq\275&\352F=\376\343\002>\002A\t>\2026A\276vlS\275n\t\301\275\036\264\232<\373\035\233=x\"O\275\200\3618>t\354/\274\313\223\230\275p\263\026\275\375\365S>z\270\217\276\344JO\276\"\337^>\270\177?\275?\032\255=\325\240\'\276jxE\275*\301\344=\375\346\372\275\024\346\252<\225xv=\307\250\010;\'\360\223\275\273\271\227=u\307\035\275\033e\246\275\\g\321<\341e<<Kr\314\275\220\025\366=uJ\002\275\244d\037\275\306\220E\275\013i\266\275\341\330\311=[\031\345= \254m=\240\364\315=\'\240\313\274yE\273\275x\377{\274\302\\\364<\302\t~=&s\027\275\373\275\230=\321h|=\004\325\226\275\202\272\331\275\r&d;\355\362\327\275\2036}=\000G\240=!\303\344\275\201\323\001\275\316\332\324=\303\205\316=\347t\362\274P\371\266\2759;r=6[\211=\372S\333=fT\240=J\023\021\275\'\362\243=\000\310\342\273\246\223\373=\260\3105\275i8\302=\264u\365=\275*3=\200f\350<\246\233\260=\360HE=\002\246\375;\214\373F\275UdU\275`;?\275\002\310D<\225\207\036<\004\266$\275\350\356\273<\313\301\361\275,\250\314\275)\304\252\274\010\\+\275-\324\256=H\372\327\274\374|A\276\226v\241\275\307\213\247\274<\365\247<\023@\022=\320\230\234=\002l\022\276a/X=o\230\277\275\214\002\033\276\251&c\275\234f!\275m\226\251\274t\201\323\275\000z\301=&\340\307=\017\236\023>\220\003\272=IP\245\275\217p\330=\006o+\275[1\270\273S\034\r\275\014\010+\276\311\375\227=\247\264\337\274\371\366\200=5\200\272=\373*(\275\360m\023\276\264^4\274\270\246\321=\364k\313=\303np> \327\207=\221\377S\275=hy\275]y:>\335\3104=\353Wp\275m\035\031<\'$g\275\030r\354\274&\244\002=\330N\227=+\016E\276\367\367\374<[\017)=\2773\016=x\205M\274$\254\253=\017\347\211=\317t>=C\3049\276\010\256f<\225\201C\276\337#9\276\331\340\336<\233\333\232\275\352\225\260\275\325\277\233=r\367R>\033C\244=\201I\360\274\022\323Q>\273A\306\275\027,(\274\273\203{=;\337H=\026l\273<N\253\217\274\224#\244=unA\276\270\332\217<s\376\337\274\023\027\273=\367!\256\276\215n\305\275\327)\000\276m\244)>\226F\205\275i\202\205\275@\264\026>JC =\203Z\307\275\330\257\333\275\217\246\312=\247`\246=\030\r\220>\252\334\032>\315\355\234\275\235\376*=l\033\227<\345K\356\275\357d.\276\375\201d>\310q\313=\316Gm\275;4\275>h\000\362\275\314\324\220\276rt\021\276\202+\303;\322\022\016>\322\367\241=\263\257\240\275\177\252\264\274\016\351L<^\025(\276\304g\233\276\260\3038>\240\362\215\274HR\324=\366\304\366=\275\335\212\274\201\330\301\273\337\355A\276|k\257\275\361.\202>v\005\027\276\177\242\340\276\242rQ=\240(Q>\306O\311\274y\237\313\274\177\346w\275_Vs\276\032T\204=\031h\202\273\305V\254\275\023$`\275\022\013`\276\021~\300=\273\333\t>\340\320!>\237\2458>\217\351u=C\377\334\274\230@\312\274ll\030>\276\362\014>\340\031\032<`F\010\275\333\274<>\300%e\276\037\000>\275\270B\312\273\370\306\001\276\n\2015\276Y\377\220\275\n\033}\275;4\215>TG\005\276\276\251w\275\367.\004\276\250\237s\276\245\016\021>\321|:=\027\nq=)\302\033=\370I\322\275\034\200\n\276%\363O=Gw;\276\251qG\274\334\213\007\276\304#`\275\031E\207>\205\262\034\276#\341\017\275\333\204\244\275=\233\241;h<\201\275A\355 \276\000\344\341\275\211\317\010>\362]\031\276\212\3410>\007\353\215\275\256=\030>IQk\2758>M\276:\0315\276\224f\207\275\031c\247=\301\'\027\276\363\333\"\276\266\215L=\336\321~\275X\263r\2762\211\032\275$\305g\275\275)\027\276\"\216\247=\273\3620<\232\216P\276|\200\354=}C4\276\226\216\332\275\022_\345=\211\023)=\214\304\037<\317R\356\274m\313\310=\246&\346=\001S\231<\273\262\022\276%\004\013>\302\014\216=\027ZU=F\304*=0\365\343\274_\272\264\275\240Tm=\320\254\351=):\204>K\177:\276\240\371\313:\355\033\372\275\025\320\377\274b\252\265=\3442\370=\367\204\271\275\355J9=\211Y\326\275\203\277\222<&\020B>G\\\312\275\002\226-\275\273D\373\275\t\370\013\276\301\325Y=\037N\006\276\264\351\215=Q\333\010>\301\022\215\275\207\203\241\275\221\336\031=\' \206\275\347\204\013\276\033\315\247<\224\310\235\274v\354\231\275$*\200=J\266\257\275\240Mg>\243\351\376;\331\025\'\276]\353\205>\035\215\005\276O\330s\275\270\226M<\257`\333\273X\216\337<\373*=\276\237\335\202\275\2560S;\316H\004\276VV\036>\316\307i\276BX9\276!\0271>\\{D\275i\357\004\276=\275l\275\025I\203\275D.L\276a\334/>_\334\014<J\021\237\275\315\371\226=\215\027,>\320\363\277\276\315G\210\275A\366\356<9\323\342\274\353\253\005\276Y\037\217\276\350\207\366;\223\010]>\315\275\374\275\252\273\354\275\334Y\241\275t\242\305\275\274\307U>\205p\374=)\017H\276H\3719\275\326T^\276\241\375\354\274\"\263\t\276\006\031\266\275H\305p\274\026\264w\275?\300\320;\363\273Y\274a\200\217\275\307\021\014>1s\016<\271\321\344\275W\333\353\275\244\232\000\276\320\366\365=>\022\030\276I\277\222\274\244\276\035\276=O\236\276\363\313\'=U\240\263\275G\376\021>\362\221,\275\'B_\275\321/\000>\263\344>\276\225\322\357\275\246&\254\275\261\312H\276(2\226\275\024\031\006>\302\010\r\275\374\300\013\275PED>:\334+=\313\347\252\275\210\005g=\320\325\300=\177\377\252\276\301\365\037\276\300\210\014\276\251W\355\275\213g\240=B\325\333\275w\274\324\275\340J\024>\257\n\333=\315\365\245\275\005\366\004>.N\300\275\314f\024\276_wt\275wo\362\275\246\001&>\217\363<\276$\r\354;S\365\266=\014\354\345<}GD<\211\222\231>\310\225\311\275.\256\205=^^~=C\310/\275\241h\366\274\r/(>W6f<\266w*\272\233\270x=g\006+>\272\010;>HD\266<\205r\264=\324\267r\275\005f\222=\020\023C\275\372>t>\036\201\300=\222j\\<,\274\350\275\246\034D\275?\336G=\376\r)=\275jt\276\030o\005\276\320\335\222<~\335\035\276\320^\274\275@\"\215\275&\243\033>cw\205\275\305\360a\275\213\311\306\275\267\204\360=R\274c=>\262\221\275\354\221\304\275H\263v\273D\211\215\274\010y,>`\016\250<\247\375\254=\020=\252<\300\207\373\275\324@\223\276\336rn\274\275\037\325=qQ\204\275\332\324\034\276\272\330\023>8\224\017\276^\207\372\274\270\220\275<\272\013i\275\341k\021>\333\353\327\275\222(\221=\270\231Y=\354\362\331=F\201\026\275\212\324\017>\007[\202>}\210B=7\243\315\275Qv!\276\3659\350=\265tR\274\033\266\361=>Te\275\367\362H=\355\247\003;lx\366\274r\234(\275\333\236}=\005vM>l>\036\276\226\344\322<\017\334!>q\206?<b\376\034>\200\313\373\274\314\033\254\273\316(\237\275\226ny\276\226\371\017>=\351\254\275\331\313\010>\2672/\2740W\035\2762\251\255\275\237)\366=l\261\273<$\002\342\275F(\265<D\203B> \243\274\275\2040\027>\371H\266\275\227\212\t\276\010\322\004\276kx\303=\263$\035\2767\254\022\276L\311\316\2755M\245=M0\014>N\2605\275-<\215=\202\r\347\273n\000\254\274/3\365\275h\231C>\312P\270\274\205\017\032\274H._\275\005\354\203\275\362eW\276\336\2324\275\250.A\275\272\212\235=\327\272`\275\330\305/\276l\356\037\276M\256\022>o\0351\275\366\347}=))\035\276\264\031\272=\026]\013>CQU\275\214\272\007=b\216K\275|\'\300=b\345\255=\226\370\302\27452\'\276\033\365C\275\201Q\020>\352\020\002\276=g\034>\003>\266\275\024\002 >)\266O>\362\3222<t\222Z=\270\265D=\307v==:\323\030\276\342\366v\276\254\376\007= {i\274f%\257=4\210\332=\377\333\335=\t\3559\276\376\2243\275\241R0>}q\322=\347\210\216\2755n`\275\301u\353\273\356\341\314:\230\243\274\275\003`)<\324m[\273\305\224\003\276\252U\013=\233\320\316<\346\307\235\275\265\315\245>\242\234\000\276\014\226\020<\223w\200\274\035V\215=\233\3010>x\177\005\275f\363 \276\244l4\276\026\0220\276\340\037\340\274z\231F\276\332A\001\274\320r\232<Rt\350=Y\307\201\275\264V\010\276zl\372={\231t>\021t_\2750`\275=\255\030m\275\344\0047>\202\2322\275\235\244,\275\201/\265\275;\310\025\276\321\322\346\275\274Z>\276\311\334M;4\202*\276D\277#=\3773\n=\014\356\036>\017Z\246>5\204<\276\202\367N<\271\300\031\276B\2501\276\345A\224=G\225\233\275\217\236\215=lvD\275\t\027\023\276%\210J\276\020\337\362<z\326)\276w4\023>\217\252\327=\222e\254\275J\243\005\276#\227\311\274S\3229>\030\223\004=Pk\374\274\017\325\007>\276\257z=\377\3112=7\320h=!\375I>\356A@\275(\022W\276)\034\317=\251S\324=O\251\275\275!\253\366\275h\327\022\275NS\223\275\260\"e\275\224}\032>\367\005\274\274\220\246\241\276ug\036\276:\024n=\340\322\302\275\207\t\221=C\262B>\026\340\235=\307\226)>\037\024l\275\211\217\204\275\307\350.\275\323,\001>n\320\310=\360 \036>\211}\222\275B\020c\275g\252[\276\213\n\316\275d\340Q>=s7=\tmZ=Cy8\276&K\374=\327O[\276F|8>\314\240q>\304w\354\275\375i\000=\357\272\372\275\256u\305\2765\356\373\274\316\377(\275\0315\236=\027\025s=\350\240\266=6s:\275\311\222(\275%\354\031>\r\032\330=6\333\037>g\333\237;h\247\025\276\023\327\320\275\326<\200\275\263\305\334<\275wV>\221(@\275\005\243h\275\271\336j\275N\001,>\344\331\203<]\010$\275\355e\227=N{\367=\0236\247\275}M\256\275D\230\001>\360>\206\273\026o\345<\037\243n=k\3655\276+\351\304<Ut+=\333\033\322=\357\032:\276\242\205\013\276\263\227\270\276\372\0136\275\214^i<\363\242\013\276\340v\027>\014we=\315\351\313<\023\030\346:`S\016>Cu\273\274\243\3223>I2\020>u\365\232<\244?\216\2769\371\377=\351\364\307\275\275o\300\274\362\306\250>\000\034\031\275\310b\027\276q\222\374=\005\020\200=\226\227\200\275\260o\243=zu\001\276\357\267\033>\236G.>\257:\340\275K\003\036\275\217\224\006\2759\306\312\275y\3175\276\200\226g>\032\206N\275\322\3571\276\211\016\374=\303E\303=x\356\264\272\342\037$\273\360\013\277\275\243\037@=]\275\212\275\010\213\027\276\014\026e<\024\336\000>%\366?\275,Q\035\275\021S\036=\327S[=\271\023\324=\254K\217\273\352\321\204\274\227W\373=\024.T=\346\204b=\357\214\231:\305\201C\275\257\330L\275R\202\334\2749\263\231\275\031\\\263<g\261,\275-\300\221<S\225\024\276\273?`=\310\001\323\274\306\002\020>\313\243\250\274\214\245q\2759\351I\275\352\244\315\275w*\030>H\375\177=n\202j:\321\324M\275z\346\275<\037\214\241\2759@,\273\3272\031>\"\256\275=\360\244r\275\002b\357\2756\300\020>\230\201\177=\335\017\036\275i@\231\275V\317\320=3y_\276\351hC\275\017~\"\275b\303\036\275]\265\374\274\224\361q;\205+\325=+]\220\275\323\377G<\2729\235<<\220j\275w\037W=\203\264\016\275o\257c;\254J\217\275\221\250\224\275\035.\275\275\234\032\224=\374U$=\3443\032=L\370\025>I\216\030\276\362c\270\274\\\255&\275\244\243\034\274\245\250\002=\326\322\340=\330]W\274\320\331H>\014\231\222\275\304o#>\227q\335\275\034\263\315;\020\014\372\275\324\017\256\274\325s\321;\301\330\222\274\036X\350<\364\324\305\275\210\267\254\275)\352.>`O\215\274\322\244\330\275\022\027 >:\213j=\336^\205<n\250i\275:o:=\206VT=\226zU\275&\341]\275\212U\221>\320\372w=pL\377\274R\343\004\274\202\335\315\275\265\202U\276J\215\236=A\017\213\2758\256(>\336;\206=W?\264\275\252\003\373=E>\344\275\2357\265=\361\372\257=u\275\245\275\0046\216=6d\326\274\254\244\372\275S\255\233=\336\320\262<\237f\352<g\212\245\275\244\322\340=\260\342\030<\304\337\264=\3108y\274\202*\373\2750\267\272\274\347U\331;\273\375#\276\221\354\240\275\0205\374\274\251.\021\275>\007|\274\366\231\321\275\367\275%\2752\223[\274\231\202\332\275/\254,=\262\014\213=\'0\262\275\333t\267=\335!\301\275\252\232\341=\034b\274=\017\317X\275_4\231>\216\213\276\275R\262\260;\351\310\264\275uW\375<\305\232V\276\327&\210\276\r16>\227\374\216=\327\'\270\274\254~\001=k_\235\275\266\217(>\205N\240\2756\230\220\273s#\027\2762\014\253\274\343\356\005=\337\200\214=\250\017\022\276\213\216&=\305\243:\275z\333\206\275\371-\345\275&C\334=\304\250\261=\332\262\t\276\227\202^=o\374%\276E4\300\274\245\001\020=R\300\020\276\325\365\307=\273\231M\2753\257\035\275\300b\324\274R\323z\275\345\210\336=FV(\276\241\215\303=\r\242N\276\226S\321\275iL\002>\311]\311=\276\026\212\275\326\360\231=\340C\377\2756\2321\275\025\222y\2760\377O\276\317$5;\006\253\343\275y\335\221\275$\016\213=\006\013\224\276-\030\352\275(7\240\275\357e\231\276_\205\337\276\262\236\267\274\002\003)\276p\240\376=\316F\365=pN~\275\302\250j\2746U\353=\361\331\254=\021\235K\276\205T\003>\303\305\000>\331\334\231=\340\265\302=\366\265B>R\244\241\276\327Cb\275\323\030\214=\023\355\231\275\214\300m<]\335V\275\2008\357<@\336X>\352\215\211\2760zY\276\020!\014<\352\037\003\276\231B3>~\376\017=\330\007\034\276\224\343\260:\207S\221\276\347\371a\276\276\310m\275\346\323b\276&\027H=[9\213\275Th\002=\357!A>\265v\250\276\332\024\240\275\023p\315\274\n\231\334<\340\330\256\275\336P\022\276\2148\216=\362\277~=\2556I\274\3520\034\276\246\333H\276\320b\207>\274\301\017\274C\276\312=G\217\241\275\325T\220<,\364\005>\257\345!\276\237\016\253\274\320\204\237\275\370\354\013<-\247A>\177l\346\273\225\323\210=\340\214\\\275\362Q+=\370/\326=\304zd=NEi\275\365Li>\334iM=\355{U\275\246s2=\315w(>&\252\376;\014\177L\275 B\030>\361M*= &\021\276\325\345\260=\260~\334\273\037S\354=\211U\276\274\330\216\273=/\255\035<%\321\203\276L\273\363\275ARN\276]Y\234\275/\341\212\275\334a,=\324r\364=q\217*>[`\002=\261%6\275\005\346\006\275\010i\376\274\355\245X=%N\027=,_\376<\325+\320\274\202S\007\276k\321\032\275M\244\n>\014\023,=\255\023\302<\272\211\254<\365\177<\276\352}\365\274\335\277k\275\306J)>\004\t\365=\241\351q\274J\016\031\276\316>)\275\237a\t=\264k#>\341\337Q=\317\373\205=\312}\234=\034\361\240\275\326\205C<J\266\205=\265W\256=\034\031\026\276\032(A>\312\'\334=\347\260p=\234-f\274\307\032\240\275\313\203O\275\346\236\246=\270DV=m\3347=2\313\265=f\243\322<\242\010L=\375M\371=$\341\032\2746\330?>a\037\304\274\360\307\004\276\250U\242\275\217\257\210=\242\261\212\275\244\312\001\275\370\321I=agd\274\217\327&\274 \305\027\275\024\3610=5R\">\345\247\361=\213\'\370<f\3551<\3364\'\276H\247w>\256\231\234\275\271\0310\275%\341\217>\211 \211\275\035\354\t\276\252xW>*Wq\276\317x$\274\373\337\347<\217\032\247<6M\r>\225\206\256\273A7\276=\207=\374=\373\010F=\213\370\231\275\321;\002\276\021\235\r>\260\342\002<\227\305\366=Co\203\2756\324\275<\353-9\275\370N?\275\321\007C>b\271\260=LU\221\274\362\216\253\274\030\352N\275/\244\200\275q_\254=\026\355\202\275\326\203\204\275\254O1>\017\211\235\275\364}\200>k\241(\275\273D\217\2752\352\243=\234\021@=\n-e\276\262\362%\276I\265\237\276\321\007\230\275 